/**
  ******************************************************************************
  * @file    network_data_params.c
  * @author  AST Embedded Analytics Research Platform
  * @date    Mon Nov 14 10:10:09 2022
  * @brief   AI Tool Automatic Code Generator for Embedded NN computing
  ******************************************************************************
  * Copyright (c) 2022 STMicroelectronics.
  * All rights reserved.
  *
  * This software is licensed under terms that can be found in the LICENSE file
  * in the root directory of this software component.
  * If no LICENSE file comes with this software, it is provided AS-IS.
  ******************************************************************************
  */

#include "network_data_params.h"


/**  Activations Section  ****************************************************/
ai_handle g_network_activations_table[1 + 2] = {
  AI_HANDLE_PTR(AI_MAGIC_MARKER),
  AI_HANDLE_PTR(NULL),
  AI_HANDLE_PTR(AI_MAGIC_MARKER),
};




/**  Weights Section  ********************************************************/
AI_ALIGNED(32)
const ai_u64 s_network_weights_array_u64[46931] = {
  0xbdd10c1b3d9daecfU, 0xbe4667dbbd369963U, 0x3da58db93e0de73bU, 0xbdc34537be12769dU,
  0xbd76581abe28fce3U, 0x3d80cd993db23268U, 0xbc75a5803de3b8e4U, 0xbd51e6e6be0976d8U,
  0x3dde4d3cbddf2cf0U, 0xbde5e0063db3d0d2U, 0xbaf5dedb3abf07f7U, 0x3a9eef66baa1d28fU,
  0x3afdd93bbaa53531U, 0xbb8c13a8ba2e817eU, 0xbdb6fca33b204d9cU, 0xbe039f843ae0fe86U,
  0xbceb05753d634df8U, 0xbe32c338bd96bccfU, 0xbd87888e3da92064U, 0x3d181fc8bdb3c5b8U,
  0x3b5f16babe047d9aU, 0xbd9ff1123decec30U, 0x3e00e83a3cf5a033U, 0xbe20b6213b8ec6cdU,
  0x3c971bf43c7ec4ccU, 0x3d2b489d3ca89d07U, 0xbdc7119dbda87f99U, 0x3cd6a8b43d110d8eU,
  0x3d95e51cbcdc57f5U, 0xbd8b49fcbe396167U, 0x39dc7a583b583f67U, 0xba922b14bb5fb279U,
  0xbab62c4b3a0ff6c5U, 0x3858409ebb40f14bU, 0xbdf00e46bde14acbU, 0x3de1f5ec3d847db7U,
  0xb958a0d93b39d944U, 0x3a2886cc39646333U, 0xbe2103763d3026cdU, 0x3d8781fcbd910909U,
  0xbd90544d3c0e01e5U, 0xbcec16c83db5eb74U, 0xba3a4d353965e050U, 0x3a981ffdba4c96e7U,
  0x3dabcd743dac1f2eU, 0xbdb69c1fbdbc82bcU, 0xbd57d55ebd69ab01U, 0xbe77b501bdda75e3U,
  0xbb8fa8d2babef165U, 0xba2f7a44bb052351U, 0x3ce180cabc4ab4f4U, 0x3d34ad963c8719f9U,
  0x3e079d8cbc39750fU, 0xbe16751dbbe2dac8U, 0xbba27adfbab083dbU, 0x39a294883a82bb13U,
  0xbcda26983d1d0988U, 0x3d0e13dd3baf3411U, 0xbe0e3205be22491cU, 0x3d63444f3dad530aU,
  0xbdc664c0bdea9ac8U, 0xbe514cbebdd68576U, 0x3dbd4a85bda326f3U, 0xbdd41f013dbe9da2U,
  0x3d249ce73c14d0bfU, 0xbd3549d5bd4379d6U, 0xbd87a49f3d5d63c4U, 0xbde748efbd83a9a6U,
  0xbcbf0f8cbdf3d112U, 0x3d12149f3d9db9cdU, 0xbe353571be1b5abfU, 0x3d7aa6ac3dc3933fU,
  0xbd9587e83dee3df2U, 0x3d9ab2f8bdf8c733U, 0xbb3be048bbc91eeeU, 0xbb54d7c83b993019U,
  0xbdec7e65bc628439U, 0x3db0feb8bc93bd98U, 0x3da570a1bda44edfU, 0xbd916a9d3dbd1133U,
  0x3ceff8a8be0a8114U, 0xbdfa9a0d3e0da53dU, 0x3b371debbd580efbU, 0xbd6b0a3d3d08826dU,
  0xbd7bc8de3e000e74U, 0xbcb2837cbe149becU, 0xbc356b29bdbaf8e6U, 0xbd899e163da7e4fbU,
  0x3cae059cbe118101U, 0xbdb8aa733e0bcc17U, 0xbdffb6cabd39b32eU, 0x3dc54dc5bca9e62dU,
  0xbd8e65f13c37be8aU, 0xbd7c54ec3d8ef56aU, 0xbdbd84b23d95a078U, 0x3c67ee19be4acd2eU,
  0xbb9d61a3bc3e3946U, 0x3aabff283bfc2eacU, 0x3dfbaa9cbcb038aaU, 0xbe0e62443d0304d7U,
  0xbb925394bba8ac61U, 0x39564d5b3bd6af04U, 0x3dccf4cabdc109e6U, 0xbdf391aa3d9fcf43U,
  0xbc92c899be303e02U, 0xbde237153e12420fU, 0xbb96ecab3b14489cU, 0x3a73e16ebbb0cf9aU,
  0xbddec02bbe01300bU, 0xbe18a22ebda1c9c5U, 0xbd949fa3bd06d41aU, 0xbd82f726bdd459e9U,
  0x3abd2c9bb9d31508U, 0xbc5b6307baeaafffU, 0xbdb181d13c2e01bbU, 0xbd6b8ea63dc67e76U,
  0xbdd1cd493d135662U, 0xbde047883dbb60ebU, 0x3cce8e4d3c814f8dU, 0xbe3d036bbdcdd12dU,
  0x3b8a7814baac9dbfU, 0xbbbb85e33adda92dU, 0x3df084c93d700a44U, 0xbdfbe055bd11d726U,
  0x3a3a4a7b395179d9U, 0xbad510e5ba705530U, 0xbd1c741fbe413aecU, 0xbe12dced3e1671efU,
  0xbd40d7ddbd1c414dU, 0x3cae23c0bd8aa08dU, 0xbcc96ff43d3f4adcU, 0xbd7d3576bd2a2ee9U,
  0x3c9f9e753dd93508U, 0xbcd79e22be3264d8U, 0x3d818b32bd534dd0U, 0xbe10f1153d6c8daaU,
  0x3cdcb67d3daae1afU, 0xbdcb8b18bdc08de5U, 0xbccaf9b1be32b5eaU, 0xbdf47b1b3e0fdcecU,
  0x3ddd17113d36d5edU, 0xbe24edfe3b48e650U, 0xbb3c881fba6d623fU, 0x39b23d2f3a504d14U,
  0xbc258ca83dbd7b9bU, 0x3bf5e65fbe23c966U, 0xbd35b9783e022d3fU, 0xbd2df27bbe2528bdU,
  0xbdd415743dcf6023U, 0xbdd4dbaabdd4d7c7U, 0xb9d69a923b07c308U, 0xbbc0096dbb99e46bU,
  0x3bad63533e018d48U, 0xbcb876f6be138d4dU, 0xbdb19a333e05b085U, 0x3dbf4f24bdf690d1U,
  0xbe05c36abc303d6cU, 0xbda7245a3d960d6bU, 0x3d35c60bbd594719U, 0xbe242a823d3eef25U,
  0xbc01bf3dbddafdd9U, 0x3d7537123d9789cbU, 0xbe1a160cbe069c6eU, 0x3e0d88fa3cdd4874U,
  0xbd01b6dcbe10cd28U, 0x3d223f0e3db7a57cU, 0x3c1f546abe370b2bU, 0xbdd790c03e2142a4U,
  0xbdb7f71c3d6999baU, 0xbe0418eabd5d8902U, 0x3dedb563bdad440fU, 0xbe0a4b233d4fb1c7U,
  0x3914ca37bdbf6a83U, 0x3c8ad5423df75d8cU, 0xbe4991c03d3d9c72U, 0x3d8b4a64bda06dd3U,
  0xbd8893b33cf75bf4U, 0xbdf5d54f3d3abc14U, 0xbc0824f73c0e345dU, 0x3ca0e6b93d59296cU,
  0x3e0548ee3e0bbef7U, 0xbe0bee3ebe1dfb09U, 0xbde5d0d33dec760aU, 0x3e00863abdd1e521U,
  0x3b4506e53dfe1d1aU, 0xbcc94edcbe25a3c9U, 0xb9b8e8d63b21ee33U, 0xb8dc5d0dbb571c1cU,
  0xbab03f9d3b37298cU, 0x3a989ee7bb63c2b0U, 0xbcf4af3fbdbd4bd9U, 0x3d8088d53dd92196U,
  0xbd49f3a23e1c4c9eU, 0xbce818bebe2776b0U, 0xbe29404d3e0e6b2bU, 0xbe003167be2028d8U,
  0xbe18ff59bdc277d9U, 0x3cd49216bdd6f3f5U, 0xbd05eb433d36920dU, 0x3d0277aa3d31133bU,
  0xbda80c45bd2328d0U, 0x3d569d153d137ec0U, 0x3d90f0ddbdcfacecU, 0xbd2932c03df844cfU,
  0x3c3ca3a53b6c3dfbU, 0xbb72e0b0bd2ecedbU, 0xbe1ffbc7bd9e47f3U, 0xbdaf2df3bd814361U,
  0x3b68f8a1bbebbe51U, 0xbba8a2e23bf69ee7U, 0x3d488b82bdf87cebU, 0x3d436da1bdd25ebcU,
  0xbd8a97443b0df3e1U, 0x3d4f7091bd47493eU, 0xbe13146ebd8dedd1U, 0x3e013cb9bc0f5b45U,
  0x3d2d055d3dc00325U, 0xbd7c7a80bdff3ebdU, 0xbdbfe4bebd63bee6U, 0x3da01d7abca4583cU,
  0xbdf39569bde7a2c8U, 0x3dedba903d19b717U, 0xbdcfca3ebdb66c5cU, 0x3dac68253c605204U,
  0x3d270a223d8c8c4cU, 0xbdcbbf6fbdb0133aU, 0xba0480683c9faf1fU, 0xbbaa33a3bcc15d13U,
  0xbe175ab03d411648U, 0x3e0b9ebdbd191f4cU, 0xbda30e813c65235aU, 0xbd2b866b3d75460dU,
  0xbe1eb0fb3d038754U, 0x3dd6d388bdb9ecf5U, 0xbd9f5849bdf6674aU, 0xbe4bc15fbe11b18aU,
  0xbe1245b5bd60a1a2U, 0x3dde381cbcc3da81U, 0x3dfb0c40bdab3382U, 0xbdf40a9e3d8d336fU,
  0x3d2a4a9abd2e9bceU, 0xbd0dd311be1648c0U, 0xbdd8a1423e136ba8U, 0x3dfec0f1be11d587U,
  0xbb935889bc6d9e5cU, 0xbcf4ba0dbc98dde2U, 0x3c9762aabe4142efU, 0xbe19bc313e21eb58U,
  0xbab23886b8cf1e8cU, 0xbb8eaf1c3a977e66U, 0xbd1c461bbc916763U, 0x3a01349bbd8db0b9U,
  0xbc0ffbb3bd98d8efU, 0xbbeacacabd625092U, 0xbc21816ebd8804fdU, 0x3ce340013dbb73b6U,
  0xbe8a9b1b3b9fb5d3U, 0xbee9cf5abf0e67c5U, 0xbd9a5f12bec17ef0U, 0xbc8197ebbe2253cdU,
  0xbf028b3fbd9449a5U, 0xbef07339bec62c4fU, 0xbeda3f35bb1ebd3eU, 0xbe016e2abdff192fU,
  0xbea2f1d8bdb0c291U, 0xbefa97f9bddc8f21U, 0xbde3af62bf1edba1U, 0x3d98d11dbea01879U,
  0xbe02b473be2ca0a7U, 0xbe071109be90a1d3U, 0xbf136c0abec21ad0U, 0xbe8f57203ebe3dfcU,
  0xbd4619adbec9fe68U, 0xbf1a1fd2bf0a1c77U, 0xbeb8d57abedc5140U, 0xbed148e2bef1db68U,
  0xbf0ed493becb0eccU, 0xbee1663ebed10e07U, 0xbee437debeee2f6bU, 0xbe8e9ca5be93a6baU,
  0xbee4e7aebe328334U, 0xbefde986be870884U, 0xbe527ff6be40bc3aU, 0x3f34be463e8b1c3dU,
  0xbf35f38cbeadd500U, 0xbeb6c315be7cbf8bU, 0xbecb7477be78754cU, 0xbe832f3abd92de61U,
  0xbe832d92be591323U, 0xbf05b656bf04359cU, 0xbe87a395beaea4c4U, 0xbda2111abee88362U,
  0xbec48b79bf0b1927U, 0xbe82773ebe51ffb5U, 0xbe8a759ebec30708U, 0xbef33119be239dcdU,
  0xbeb652c1bef3fb27U, 0xbea2601fbf26883aU, 0xbef2d3803d2dc494U, 0xbedb2b29bf3659faU,
  0xbede0a53be1a3574U, 0xbe8f187dbe43514cU, 0xbde396c5bef44a61U, 0xbf1f95f0be53b9c1U,
  0xbe5550e3bed81426U, 0xbec0f7ac3e8af7caU, 0xbf057b04beea2e79U, 0x3f18214abe9d7069U,
  0xbe8c7ef9be758c0fU, 0xbec42539bed7404cU, 0xbed9c179beec681cU, 0xbede1e05bec532f3U,
  0xbeaba39abeb7dd61U, 0xbf148d33beba7c5bU, 0x3e9d93bcbf041722U, 0xbf08f527bec83553U,
  0xbe9db422be58cf8dU, 0xbe8086d3be6d5d13U, 0xbda06fd4be135debU, 0xbf246612be6a9891U,
  0xbf00124fbf176144U, 0xbeaf3037bed5c001U, 0xbe4f063abe8a7311U, 0xbd9197cfbe0a2424U,
  0x3c3c5c11bcb77b3aU, 0x3dea23e53d6be669U, 0x3e6e14613e315c53U, 0x3eba58f03e96464aU,
  0x9989888899989998U, 0x9988898899898998U, 0x8888888998999889U, 0x9899999988999899U,
  0x9889998999989888U, 0x9888888999899889U, 0x8989999898889989U, 0x8998898899889989U,
  0x9889989998989988U, 0x8989999989989988U, 0x9999899989989898U, 0x998a999999988898U,
  0x9899889998898898U, 0x9898999999998988U, 0x9989899898988998U, 0x8889898888898998U,
  0x8899888998999999U, 0x8898888889988989U, 0x9998899889999998U, 0x8988888888999899U,
  0x889898999889a889U, 0x98989a8899999888U, 0x8988888898989898U, 0x8899888998998989U,
  0x8999898898989999U, 0x9989998889898898U, 0x8899989989888898U, 0x9888888889988889U,
  0x9988999899989998U, 0x8988a98988989989U, 0x9889999888999889U, 0x9988999899889888U,
  0x8889899998999998U, 0x9998899988998899U, 0x9889888998898898U, 0x8899989999988898U,
  0x9899988999898899U, 0x8898998988988899U, 0x9998988998899899U, 0x9989898988888888U,
  0x89a9998889989889U, 0x9998888988889988U, 0x8889889999898899U, 0x9998989989898898U,
  0x8889898989988988U, 0x9989888998998898U, 0x9899998898898888U, 0x9898988898898988U,
  0x9998989989898999U, 0x9998988898998999U, 0x8988899988899a89U, 0x8898889998888898U,
  0x9989998999999988U, 0x8898989999898889U, 0x8888898999998998U, 0x9889888998889989U,
  0x9898889898998999U, 0xa899888898888998U, 0x9899999989899999U, 0x899898998889899aU,
  0x8898999999998999U, 0xa998999989a99988U, 0x9998988989999888U, 0x8988988988998998U,
  0x8889988899898899U, 0x989a998889988998U, 0x9989998998898889U, 0x9998888898989899U,
  0x9998999989999989U, 0x9988989989898999U, 0x9988888998898989U, 0x9999898899888989U,
  0x8988888998888998U, 0x8898898888888998U, 0x9988888889989988U, 0x9899988889998889U,
  0x9999999989999898U, 0x8988888989999888U, 0x8999898999999988U, 0x98a8988999888889U,
  0x988998a888999898U, 0x8898889988989899U, 0x8998999888898988U, 0x8999889998998999U,
  0x8898898989889988U, 0x8889998889888899U, 0xaa99898898999899U, 0x8898899989889988U,
  0x9a99988988989889U, 0x9899899989989889U, 0x9899988999888999U, 0x9889899898998888U,
  0x8888889989889899U, 0x9888888998988998U, 0x888989a888998988U, 0x9988989988989898U,
  0x8888898899988998U, 0x8888989999999889U, 0x9999899899889998U, 0x9989998898999999U,
  0x9899889999999999U, 0x8999a89a99999999U, 0x989998898a898898U, 0x9889989989898999U,
  0x9988988998999988U, 0x98898a9999998989U, 0x998898989888aa98U, 0x9999888899988888U,
  0x9888889898889888U, 0x9899889989998999U, 0x8988989899998989U, 0x8898888889989988U,
  0x9889898888888989U, 0x9989998989989899U, 0x9899888989889999U, 0x8898889999999998U,
  0x8899899a99898888U, 0x9989988888988999U, 0x9988898988999898U, 0x9898999989899998U,
  0x8998998989899898U, 0x9998998898898988U, 0x8999999898999888U, 0x9999989898988999U,
  0x9988988898898889U, 0x9989888999889998U, 0x8989999989988989U, 0x9888899898888988U,
  0x8898999989898889U, 0x9888888998999988U, 0x8998898889989998U, 0x9889899999899888U,
  0x9889898899888889U, 0x9889989899898999U, 0x9989989988989999U, 0x8888889989888998U,
  0x9898989898998a98U, 0x9899898989898899U, 0x8989988998889988U, 0x8888899988a88889U,
  0x8988888999998898U, 0x8989988888989a89U, 0x9888899898889889U, 0x8899988999899998U,
  0x9889889999989889U, 0x9989998989898988U, 0x889899988898a999U, 0x8889989899888899U,
  0x8889998898989898U, 0x9899898998888898U, 0x8989988898a99998U, 0x99888a8989999988U,
  0x9999889988889898U, 0x8899988988898899U, 0x88899989898a9999U, 0x9888999899988898U,
  0x8999999899888898U, 0x9888998988899999U, 0x8988889899899899U, 0x8888888998888998U,
  0x9998899898999888U, 0x9898898889888989U, 0x9898898898899998U, 0x8889898899898899U,
  0x9999988998889989U, 0x9988899998899889U, 0x9999989989889899U, 0x9898989899989998U,
  0x8898898898888998U, 0x9989889889889888U, 0x9898988899888889U, 0x9988998888898998U,
  0x9999988988998999U, 0x8888999988889998U, 0x8998988988999899U, 0x9899889989998998U,
  0x899998a99a8988a9U, 0x9999888988888888U, 0x9899898899898988U, 0x9899988999989999U,
  0x9899989888999899U, 0x99898a9988988988U, 0x9899989998889888U, 0x9899989888999998U,
  0x9899999988989999U, 0x9898998999898998U, 0x8989889998999898U, 0x8988998889888989U,
  0x9988998998998888U, 0x8988898899899889U, 0x999898888998898aU, 0x9989998999898998U,
  0x8899888989989898U, 0x8899998899988999U, 0x9998998999898999U, 0x9898988899988899U,
  0x8988889889999989U, 0x9988898898999898U, 0x8888888998888999U, 0x8999999999999999U,
  0x8998989998988888U, 0x9898899989999988U, 0x8889989899999988U, 0x9999899899989999U,
  0x8898988999888888U, 0x8989888998889899U, 0x9899898989999989U, 0xa889999899989988U,
  0x9999998899998898U, 0x9888998988999999U, 0x9989888899889999U, 0x89a8989889888898U,
  0x9988989989899998U, 0x899889a999899888U, 0x9998989898989989U, 0x99899988899a9898U,
  0x9999988898998899U, 0x9999898a88898999U, 0x888998988988a889U, 0x8989889988999998U,
  0x9a98899899898989U, 0x98a9898889988899U, 0x8899989888899898U, 0x9989988889898998U,
  0x8889889989889989U, 0x9898888899988888U, 0x9899899889999998U, 0x8989899998998999U,
  0x8898899989998988U, 0x8988889898899889U, 0x9989899899988989U, 0x89889a9898988889U,
  0x9889998898889899U, 0x9889989999988889U, 0x9899899889899999U, 0x9998988998889899U,
  0x8888999889899898U, 0x899889889899a999U, 0x8998989888989988U, 0x8998999899999988U,
  0x8999988989899998U, 0x8898898988998899U, 0x9899898889888989U, 0x8899989898988888U,
  0x98989898a9989999U, 0x9898998898889889U, 0x898a9998899998a8U, 0x8998889999989999U,
  0x9988998889898889U, 0x988a998889989889U, 0x9988988998889889U, 0x9988999899988998U,
  0x8998899989998989U, 0x8889898888898988U, 0x8999888898898998U, 0x8899889999899889U,
  0x9888899889888999U, 0x8888999988898999U, 0x9899999988899989U, 0x9988998989899898U,
  0x9899898899989898U, 0x8998998988998898U, 0x8899899988988988U, 0x8999988989989888U,
  0x8999898898999989U, 0x9988898989989889U, 0x9998898888889999U, 0x9899999889988998U,
  0x8888999989999999U, 0x8989989898999898U, 0x8988898889989888U, 0x8888998889998988U,
  0x898999998999898aU, 0x8898898988889998U, 0x9888988899998988U, 0x8998898898889999U,
  0x8899898998998998U, 0x9999888989988998U, 0x8888899998889998U, 0x8898898898899888U,
  0x9988989999888898U, 0x9988999898889898U, 0x9999888988899989U, 0x8a98899898989999U,
  0x8a88989898999888U, 0x99a9999999998898U, 0x9989988988989989U, 0x9898898999899889U,
  0x9999999898899898U, 0x8988899899989999U, 0x8998888999898899U, 0x8989999889989888U,
  0x8999998998889888U, 0x8989988889888899U, 0x8889998998889889U, 0x9889998889889999U,
  0x8889999889889998U, 0x9889999999899998U, 0x9898988988998889U, 0x8988988998989898U,
  0x9989998999899888U, 0x88a9988989899898U, 0x9988998989998898U, 0x99998999999a8899U,
  0x9888898989989999U, 0x9898899988889998U, 0x9888899888a99898U, 0x9a89889989a89899U,
  0x9899988989999899U, 0x9898888988888889U, 0x9988888889999899U, 0x9999999898999999U,
  0x8889989998889889U, 0x8989998988889999U, 0x8889998899998999U, 0x99898889a8989888U,
  0x9888888989998989U, 0x98898a8998899898U, 0x8989999999988989U, 0x9999889988998999U,
  0x8999989999889988U, 0x898889888999a898U, 0x98898a8889999998U, 0x9889889888899889U,
  0x9888899889998898U, 0x8988899999899999U, 0x9989888899989999U, 0x8989898889898888U,
  0x8888988888889898U, 0x8999989998999988U, 0x89888888898989a9U, 0x9889898899888998U,
  0x9888989888999988U, 0x9898899989898999U, 0x8988889999889989U, 0x8888898989999998U,
  0x8898899999998998U, 0x9998888899989899U, 0x8888889989898999U, 0x8989998989899999U,
  0x9a99898899989988U, 0x9889999989999999U, 0x989998a989989998U, 0x8988888998889888U,
  0x9988889899989889U, 0x8888888999889898U, 0x9998888898989899U, 0x9988999888898888U,
  0x9998988889899898U, 0x9898989888899998U, 0x9889989988988889U, 0x9888989889898998U,
  0xb88ad8a79ba8a78bU, 0x8bac9988aa989789U, 0x7a79aa967ba9daacU, 0x9b896a86ba97aa9aU,
  0x87a8e96968ca67abU, 0x9b59bb88a8cacac8U, 0xa8687a7a8b9aa8adU, 0x8b8968b9998988b8U,
  0xb98866b78868c7a8U, 0xa68a598688798988U, 0x7a87776676879c88U, 0x977786787b88a686U,
  0x9aba8aa7999a87a6U, 0x9ba8aa79a7a6a8aaU, 0xa9bb779ab887a999U, 0xabab87bab78999a8U,
  0xb88758869a98a98bU, 0x9b96897ab8a8878aU, 0x77757677484886a9U, 0x956a876588688699U,
  0x87b6aaa998b6a888U, 0x9698d5a7777a977bU, 0xa7b6678bc748a689U, 0xb6aa98d6675677b7U,
  0xa997a69a8b98b9a7U, 0xa9977a97787a9788U, 0x7a867a98694b7aaaU, 0x99a77a7aba98a987U,
  0x8a65aba9797ae88cU, 0xa7aa7576688b8a79U, 0x78a6767ab976b79bU, 0x87988995886a797aU,
  0x88945c65a7376866U, 0x8696897868688787U, 0x77667676634a55a9U, 0x97a78889b868b487U,
  0x7744885788676796U, 0x9589659634946647U, 0x77667a66aa538768U, 0x75897684756a6978U,
  0x68a76b89aa875698U, 0x87889979b6789998U, 0xa768764776a96678U, 0x967978888768a87bU,
  0xb8899787a9756a97U, 0x9588799969896646U, 0x87887897a6a4877aU, 0x769965999ba7ca89U,
  0xa8a47558979a5773U, 0x6c958989269987a8U, 0xa787889868795778U, 0x9876978a76978988U,
  0x7958887679487a88U, 0x86792a6a65796756U, 0x676677ba97796866U, 0x96976a996a679b38U,
  0x79c668688a9aaa79U, 0x9aa5baac78b99aa6U, 0xb77596976cda7686U, 0x9677caab8778a996U,
  0xb86c7a876a668998U, 0x8689adbbab896787U, 0x667675bab76d8a69U, 0xa898778d6a96bb89U,
  0x8a9a8bcb8a99a8d9U, 0xbbbbe98bba9aa798U, 0xa98b97a79bd8ab9bU, 0xa9989a89a978cc9cU,
  0xaabb7b99b8b7ab9aU, 0xaaa9adbcccabaa79U, 0x9aab9898899a8abaU, 0x9b886a8f8b99acc7U,
  0x78ab9797a7788b89U, 0xe79ca9887c699b79U, 0x59aa8aba899abc8bU, 0x7b876d76cba89a8aU,
  0x5ca9b87c68aab88aU, 0x9b796b67ca9cbab9U, 0x77886a697babbaabU, 0x9b898c888bbcc69aU,
  0x78a7bc89aab8a999U, 0xaca7b8aa9b69998cU, 0x58b69baa9bc8987bU, 0x8b9d4985aaaaa97aU,
  0x5cacc97988aa8b9aU, 0x9c99ab5caa9a9b78U, 0x898967a88b6d899bU, 0x9ba96aac7b8ba79aU,
  0xa9a87ca68acaa7abU, 0x5bbba998b579a59aU, 0x86988aa79b97b8a9U, 0x9a7c768686887bacU,
  0x6aabba8698ca69a8U, 0x8a99c779969bba89U, 0x9aaa88a9a5a98986U, 0xc98a7aca9b68a6b7U,
  0xc995aa797ac96689U, 0x6ba8789a95988796U, 0x867697b67bbaa7a6U, 0x988b767968a87c8bU,
  0x97cb6ae969b8b887U, 0x8979bc87b77a97b6U, 0x85a5698ca48a78a8U, 0xba8678cb8975baa7U,
  0xd87987c89b68bbacU, 0xa57a6987b8689887U, 0x7b8a7caaa83978caU, 0x8b8aaa79bbaaa696U,
  0xab95a987a8acb9bbU, 0x98a9b4b575b78a6cU, 0xaabcac8c9977a87bU, 0xb78a8bb3c56936a9U,
  0x97767878a5278885U, 0xa466687669a99676U, 0x6786688955275799U, 0x9794779a99897597U,
  0x9962696669476696U, 0xa48853784696675aU, 0x77588876aa62a776U, 0x959986a374593778U,
  0x6867676786495975U, 0x75867a9759498a95U, 0x5766978946396787U, 0x8775596688679987U,
  0x7764697769777596U, 0x766a457677677667U, 0x7766666877646687U, 0x57a776656877a677U,
  0x58976b5586795548U, 0x7676a9977869a797U, 0x6777467876675365U, 0x967a69847659858aU,
  0x78554865aa7758a6U, 0x7649766768656644U, 0x66a5867587558844U, 0x6596666697a67697U,
  0x98b76ab99baa6795U, 0x7b96a87b77f98ba6U, 0xc886a7978aeb7887U, 0xa599c87f7568aa88U,
  0xc76d6698aa857a96U, 0x97a97ddb6cab5764U, 0x658697b997799b8aU, 0xa68a798e7a98cc98U,
  0xaaa5997886c94a89U, 0xabc6caaa89c986a4U, 0xb9a6cba74acb44a8U, 0x99a9ca8b9889bbbeU,
  0x89dcbb8d79b98999U, 0x9599acab59ad4a74U, 0x45b574bbab6b7bcaU, 0xa59889a85c68abbaU,
  0x89cc98c78979a8aaU, 0xc7ab999b9bc997acU, 0xb9a978c8adcabcacU, 0x9caaaa8b8db8c79aU,
  0xaaadcb9a88bb89a8U, 0xac88cdacb6aa9ab8U, 0xa9ba79ab8ccbbbbbU, 0x8ca97c7b979a9db9U,
  0x57a8798798c8c698U, 0xbaad79aaa749989aU, 0x4887986a9c97dc69U, 0x88794784ab97ab88U,
  0x679b9867a8977946U, 0x8e899b5bd97bdacaU, 0xaa796997688d6a88U, 0x6d886968ab98b587U,
  0x68c76c87978aaa7aU, 0x9bc989bbba598a9bU, 0x5956958768b6ba78U, 0x767d49739767aa88U,
  0x58ca898b99a6a999U, 0x8ba9ba4bba7d95a9U, 0xa8c67897677a5a8aU, 0x9ba6868b686a75b9U,
  0xe9ba9db89ba9a5acU, 0x8cacb99ab69899acU, 0x899b89b97ba9bcbaU, 0xaa9b88768699a98bU,
  0x6ab989b5d9acaba6U, 0x9b89b77ab68b9bcaU, 0xccaa7bacb78aa898U, 0xcc9b6bea998787c9U,
  0xc867b9d98e89b9daU, 0x79779977b9b99887U, 0xc6a679c8679b89ccU, 0x9e9b996b89b9b7aaU,
  0xcba7c9b9c8bab89bU, 0xa989d8d779f97b88U, 0x98c8686ca69776bdU, 0xd79c7cca79578ab9U,
  0xc869a9bb8a68babbU, 0x79768978a8b8877bU, 0x898adab7877a97c7U, 0x8797986a7b889786U,
  0x9aa899ba9899b898U, 0x8899b77689a7996eU, 0xdda7ab6ba867a8b8U, 0xb5ab7aa7a668898bU,
  0xa7a5586688896788U, 0x7776796888a98478U, 0x8856754554184697U, 0x85767767686a7995U,
  0x76748867789674b7U, 0x9469728554776446U, 0x8766755787548997U, 0xa3a8858165483899U,
  0x7785667696586655U, 0x77665a882769969aU, 0x5967678867498775U, 0x9986687797b98685U,
  0x6b436669786a77a5U, 0x887844676778768bU, 0x99568a7597858868U, 0x75aa897695886756U,
  0x7986788497797788U, 0x6a96a98767689687U, 0x888678a768584477U, 0x9688777896798999U,
  0x8677887789667a66U, 0x8569857855786538U, 0x657568a877897779U, 0x658867976a76b777U,
  0x989699a88ac86bb8U, 0x8bb6889baaa9a898U, 0xa98788978acc9678U, 0xab77bb7b7a788a9dU,
  0xc7aa79a9aa979ca7U, 0x98a9aba9879b6877U, 0x868889ab86695aabU, 0x79887b8b6d7abc8aU,
  0xa89989a997d988a9U, 0xcdb9a97a88ba9b84U, 0xaba898ab7ee96888U, 0x9a98988caab99c9aU,
  0x8abe9a79a98aabb9U, 0x97aa9fad9b6d8a99U, 0x88868ababbac9bdaU, 0xb79b7abf9caadbb8U,
  0x69778acb7ca9aadbU, 0xcba8999bbca996a9U, 0xaa7797a87bba868dU, 0x99aa9d9aca88a98cU,
  0xbbbdaacbb9aba8ccU, 0x9998babba89a8998U, 0xa9c777898c9ba9baU, 0x87ab7a8c7b7cbc87U,
  0xa9a78ab99889a7b9U, 0xaaa9a99aa969899cU, 0x58798a98a989b9bcU, 0x88895987b959aa9aU,
  0x67a9c99689778b8aU, 0xac9aa96ab69ad699U, 0xab976a8baa8b667aU, 0x9c9787977d6a87a7U,
  0xb8b84ca79779c77bU, 0x68bab8a7c8598899U, 0x4766867766a7baaaU, 0x869b49859b77aa9cU,
  0x57aa8a88c9a7ab67U, 0x9869c76bc789a5a7U, 0x78b85899785ba999U, 0xb99877a8696795c8U,
  0xa89ba8b988688baaU, 0xa6a688a8b9789b99U, 0x7a8aa989a8899aa9U, 0x9a7b79768a87a599U,
  0x89aaaadaa9a7bba9U, 0x8998a988b998aa88U, 0xaaa9ab9a868798a9U, 0xa88968b68588799aU,
  0xb875bab98d8985b9U, 0x8ba9a99887b98798U, 0xd8c56aba8aa967abU, 0x9a9ac58c66c8aa99U,
  0xeb89987898897da9U, 0x87c997ca67a78c85U, 0x7987679da669aaa7U, 0xa89a8ce77a968ba9U,
  0xb9a876b78a8979cbU, 0x777a999889a99787U, 0x9977a667566a8a8bU, 0x8876b86d9a788897U,
  0xa797a88b79a7b698U, 0x97d986b7aaa68965U, 0x788677a778989acaU, 0x98aa798576679b88U,
  0x8886747697585988U, 0x866758898b799674U, 0xaa678685775a46a9U, 0x86878887ab7a7686U,
  0x9777987977779886U, 0x96a9797656853646U, 0x68a88a69a966a689U, 0x8578669676696986U,
  0x77a86a6a89987886U, 0xa96888768b588887U, 0x6a76999776485ba8U, 0x89996b77b8a89c89U,
  0x7a669978a877ab9cU, 0xa59a8766887a9777U, 0x578677779a858688U, 0x58a766867d7b7778U,
  0x7797696687796676U, 0x976769886a798888U, 0x7b6a586695685584U, 0x97766b67ac699797U,
  0x87666896694578a5U, 0x866966885659555cU, 0x9ab9ba778a95a755U, 0x97a86776a6b9a959U,
  0x69889a7697a8a694U, 0xba8789885dc99798U, 0x97767aa6796b6988U, 0x9979ab89a9b8a99cU,
  0xaa76a9477a5858aaU, 0x785a7799778c8957U, 0x663687a67889ca5aU, 0x879a7b466b6b6957U,
  0x78c97a898aa86987U, 0x9bb6b98a7ac9a7a6U, 0x9989aaaa77b976b9U, 0x9aab998b9889aa8bU,
  0xac9c89a69989b998U, 0x98898c8a679b6956U, 0x67b7869899888a9aU, 0xb698899b7b99bb7aU,
  0xb9a8c7a87ac9a79cU, 0x69b99989b8c8a69bU, 0xa7c6acc95bccaa9bU, 0x9aa7b77c78daac97U,
  0xbdabaa98897baea9U, 0xa9999cacb69a8c8aU, 0xb787788bb98cac8aU, 0xc89a7cab7c98cb99U,
  0xc9a64a98a6c979abU, 0x7ab7b99bc9589ca7U, 0x5878b45678d877aaU, 0x957a69957957a999U,
  0x55beaabb9983967cU, 0x9989ac59896b9599U, 0x66b7859ca89a7bacU, 0xa88785be6776a7a7U,
  0xb9a89d668a87da6aU, 0x6a89b998cc58988bU, 0x47766898a996cab8U, 0x979d5b859ba7898cU,
  0x69988b88b8c9ab86U, 0x8b8aa979c56bc9d9U, 0x9bb7ab7b998989a4U, 0x8a8887b7978a96a9U,
  0xa9a6a98d89887b97U, 0x47958999856a9c97U, 0x8aa7b8a99768649aU, 0x977a8a8967aa6a98U,
  0x6b58b8ac7a7abaabU, 0x96a987787c89895bU, 0xaa79999bc6979a9cU, 0x87a89b87a8b47778U,
  0x79a798998a595989U, 0x5788699aa5888a87U, 0x79697878a56c766cU, 0x8a7a988848989566U,
  0xa798779789ba76abU, 0x977986957ca6788bU, 0x79a89a9976869787U, 0x779b8b67a4b7a9a8U,
  0x99a786978a797698U, 0x97866aaa8bb89ca6U, 0x9b875a98669a849aU, 0x8b87a69cb79aa797U,
  0xab679874898a8a89U, 0x785997a97ca66997U, 0x769787a99ca76b66U, 0x86989a8765bb8989U,
  0xb8a88696889966b6U, 0xa9a57a8a67c98698U, 0xc3b55ab6889a64b8U, 0x9b86b4ab95a87797U,
  0xba7a7966694b4a9aU, 0x955879a987aa8a98U, 0x5877569c966a6b58U, 0xa6997cc958697b57U,
  0x9997c7b78a8987a9U, 0x598379aa85b98aaaU, 0xcab95adaaa887569U, 0x9b78a69b58c97696U,
  0xac88b786898b6b8aU, 0x9888799998989b79U, 0xa796a79a956a8989U, 0x99876d7877a56887U,
  0x59a9a6a676998686U, 0x477479aa55ba9babU, 0x95aa6cc8a98b955aU, 0xac8896ac54c88597U,
  0x998ab8765a6c678bU, 0x89798b777d969c8aU, 0xa98a7a8775687967U, 0x76978a6a96a3eb66U,
  0xa9a8ca898aa97c7aU, 0xab669a99aa898c98U, 0x9eda9cdb99b97599U, 0xac7baa99acb98aa9U,
  0xaf9a9aabb9bdab9aU, 0x89aaac88aa8a9d9bU, 0xca9cac98aa7aa777U, 0xa7ac8d9ac8aba9a8U,
  0xc99b8b699ac99788U, 0x6a87a98996989d9aU, 0x9caa58b97ab9b5a8U, 0x9b7a959b88b9789aU,
  0xa77b8886c99b5aa7U, 0x8a59ba99bb88bca7U, 0x97aa878aaa7a7969U, 0xaa987ba88ab6c998U,
  0xaa98668a98aaabaaU, 0x6886887978898aa9U, 0x788aa9ac78bac58bU, 0xaa88a878578a8878U,
  0x8aab89ba9978996aU, 0x7b79a9abcb96dadbU, 0xb9b88a9b77aa88abU, 0x9d9a789b87b78987U,
  0x88a788978899a9a7U, 0x4a95aa99a6789cadU, 0x6ba9caa99a76a4baU, 0x9b7b73764a9989aaU,
  0x6ba8c9baa9a7baabU, 0x7cc8997aac97bb8eU, 0xbcca9caba68988abU, 0xab977aa6b9a697b7U,
  0xa9b787c99a5a86aaU, 0xa696b88ab9a988a8U, 0x97b86bb976a8a5caU, 0x9c698999b4b986a8U,
  0x8b9aaa67b9a95bbbU, 0xba79ba99b9a7aa7bU, 0xaa86699b97a67a7aU, 0x9b9a9c9a969aa7aaU,
  0xc898e7cd8b897cb9U, 0x6984898a76c98babU, 0xbabaaaa88798a4adU, 0x9c77b88b65c887b6U,
  0xc9aae9ca799dba8dU, 0x89aa89a97ca87d8bU, 0xb8b78a799a7967dcU, 0xa9988baa87a79998U,
  0x88998aca8c7976baU, 0x387598a9b4889997U, 0xc4b77aab786964bbU, 0xa988b78a34b76886U,
  0xbc85a7a6699a7a4dU, 0x966896b76bb76b66U, 0x97b769667476497bU, 0x68867d866683a878U,
  0x78a699a78b6945a7U, 0x1794889962a89b87U, 0xc4b75bb87aab758aU, 0x9b86c69c22979888U,
  0xab79b776985b5a5aU, 0x87587bc96aa65b66U, 0x5665578b94854949U, 0x76937a8b7782ab67U,
  0x88a78b877c787778U, 0x3774899a81a99b9bU, 0xa6886a97878ca48aU, 0x977aa57d34687697U,
  0xb96789978959aa9aU, 0x8a6898a99a677988U, 0xa9765979b3974b57U, 0xa99678798672b967U,
  0x67d89d887a986788U, 0x3aa5ba9b93d99d9bU, 0xc3998ab9b78c7487U, 0x897ab4dc25a8849cU,
  0xca6b8866b88a5b77U, 0x7859acba5ca76a6aU, 0xb76769aa93b46b47U, 0x66857a8aa8d2cc87U,
  0xbab87b6b7ab9c96bU, 0x7cb6b89b95b9999bU, 0xba9688777cc9a594U, 0x988aa6bb46b79cb9U,
  0x99cd59c89a87b978U, 0x8a98cdaba98cbaa9U, 0x77b776acd59c5aa6U, 0xaa8798bb6b849cb9U,
  0xaa98ca8998d9a87cU, 0x5ca6ba9bb579989aU, 0x88c98abb8ec877a6U, 0xad8aa5b636b98c89U,
  0x87ed69d89abbab97U, 0x89cacd88a8679b89U, 0x9ae75889b4ac5ab7U, 0xab999bcc8d7578aaU,
  0x697ac8777999978aU, 0x7aa7898aca989a9bU, 0x859aacbb8abab668U, 0x9b99788776c8689aU,
  0x8c7999888a9daa89U, 0x8cbaa976b988cbaaU, 0xd998697a767a5888U, 0xab978c798898a6a7U,
  0x989ab89998b773b8U, 0x5b84a99aa4789ca9U, 0x67b75acb7a98a487U, 0x9b7a73965689789aU,
  0x6a888a7499895b79U, 0x9b69a867bb999b87U, 0xb9686888889d678aU, 0x9a977caa7a95a697U,
  0xb8a6ba999aaa969bU, 0x59b58999c8789b9dU, 0x7ab98a7a89a8d5ebU, 0xaa7a69787589779aU,
  0x9adb8aa8c99b8a7bU, 0xac79d899dba7bbbbU, 0xaae86b8cc5796a98U, 0xbc8babdcb786b7c9U,
  0xd9a787ab8b887587U, 0x9a86b88789788b8aU, 0x898769c5869976eaU, 0x9c99659879a997b8U,
  0x9b6baa77686b8a8aU, 0x9889a97678a89a7aU, 0x8777688ccaa7b97aU, 0xc79ba9d97896b679U,
  0xa987c9a78b987aabU, 0x6966789975aaaca7U, 0xb7c88bab8a7a75bbU, 0xac99a79c57a77aa6U,
  0x98788aa7aa9b7a9cU, 0x879996986a888e79U, 0x97ca888896879989U, 0x878a7ca778b36a77U,
  0x789878968d587ab8U, 0x3687499a82b99688U, 0xb48a6966a7696787U, 0xab86b69c23687476U,
  0xb759796488a875a7U, 0x877879a98897989bU, 0x8aa98a8aa4967a79U, 0x8685779795828989U,
  0x8887b7d6ab6886b8U, 0x65957a9985c89998U, 0xb9a67ab9786a8779U, 0x9b88b77c68797777U,
  0xab578866b98b99a9U, 0x997978d988b78aa8U, 0x9879778787677a66U, 0x979a9b9686669cb8U,
  0xa8b899789a68649bU, 0x97a4899a98c99db9U, 0x9aab689ba68a7588U, 0x989b979a988a9687U,
  0xa9887a74a9896897U, 0x857a99ab6d765958U, 0x88ba98bb89a87765U, 0x959b79aa96caab98U,
  0xa9a9b78c88c86b98U, 0x7ab5a98ca8ca9badU, 0xbad8cbcabc9aa7b7U, 0x9c88b7ad67c89998U,
  0xa79b99b8697bbb7cU, 0x9ba8bc8db8999b89U, 0xc9a77bbdb7ab7c97U, 0xb89a9dca7aa7ce77U,
  0x89a8b8777899756aU, 0x5bb588ac85aa9baaU, 0x74b97aab9ab9b567U, 0x8a8a86a764c76aa7U,
  0x7a9d7a999aac7986U, 0x9899bda989669b89U, 0x9899a8acb56a5996U, 0xba8a7bba8676aa9aU,
  0x69c7a9a987d8697bU, 0x3894989aa6999b98U, 0x97c7cab87aaaa577U, 0x9a7b778943a889a8U,
  0x98aac8cc9abba779U, 0x9ba9a9979a889b87U, 0x97967aa9857b4abbU, 0x8b857b6b6884bbb8U,
  0xa99ad8889bb999b8U, 0xac89c9988c799b99U, 0x7cc97bdb8b87778cU, 0x9d786a77b9ca9aacU,
  0x7d8bc867a88c8abbU, 0x867898778c8b8c8dU, 0x7b9bab988cac976aU, 0x888a7d97aa9b7689U,
  0xa9b67878a6b9a889U, 0x4b86a99983598a9cU, 0x77a7887999a7a5a8U, 0x977a647543689b99U,
  0x66a8b76699866969U, 0x7b788b56aa78a7bbU, 0xcbb6698b949a5669U, 0x8a95789a7973d687U,
  0x88968a7a86697869U, 0x6995a9789669ab99U, 0x5a9688ab98a796a7U, 0x9a8b5686769678aaU,
  0x6baa78c9a9789a69U, 0x7aa99956aa698a88U, 0x77b5698a888778a5U, 0x79886a9a779694a8U,
  0xa9a6ca797879a67cU, 0x37989989a579999cU, 0x76db7ada9889a8a7U, 0x9b8a959767b88588U,
  0x6ba88868999a6ba8U, 0x8a79a6768956acbcU, 0xcb9b8b89a6977896U, 0x8b898ab8b79668a9U,
  0xb9b6a89978699986U, 0x3a94899874998786U, 0xb79667aa86a8a5a6U, 0x9a86b69b44987b96U,
  0xab786897a9889a68U, 0x77797bc77889a978U, 0x8689558ba5775867U, 0xa6879bba65959a88U,
  0x98b977a689588488U, 0x55877a8aa5a99899U, 0xa4885c78867b86b8U, 0x9979b5ab6699a295U,
  0xa776877589985387U, 0x8779a77969927968U, 0x8679879869657977U, 0x998767c792b58aa7U,
  0x59a7a565986a8668U, 0x389469a984a89a97U, 0xa388578768899369U, 0x997896ba32998676U,
  0xb8767667797967aaU, 0x8b79798aaa768a99U, 0x97a857a793885a76U, 0x6a879a7877747868U,
  0x68b7ca6b99698687U, 0x8776999967a99c88U, 0x77ca5ab9a69a7457U, 0x8b9b769a65b9859aU,
  0x99577883c95b4a77U, 0x87389a686e778a97U, 0x97679aa677b84945U, 0x77876a5b76d7c967U,
  0x9ac89a5a87796659U, 0x2bc3989bb3ba9ca8U, 0xa5a87ab9bab79476U, 0x8b8a80ab33976aaaU,
  0xa6bc57868b796755U, 0x7a689baa7b797776U, 0x768787a996984a86U, 0x8885897c6983c8a7U,
  0x5888a98896b75899U, 0x9b75aa898a889697U, 0x87b789a97a8b8468U, 0xa99888a888698b9aU,
  0x7b96a669aaa7ab58U, 0x9a79ab8966ab8b77U, 0x9976678778a98996U, 0x78947b6a894988a7U,
  0xaaac866b78996a88U, 0x5ab699aa8699ad8aU, 0xa7c89bb99be9b6c6U, 0x9b7688a674aa7998U,
  0x8cbe68da59bbb9b9U, 0x7aa9ac997d879c7aU, 0x9baaa78ba5b86a87U, 0x969a8cbc77a3c98aU,
  0xb9a9bc8ba79aba68U, 0x4a87c99a946a8eacU, 0x6ab97baa99a9c8abU, 0x9b7b569646d887a9U,
  0x5aa8a9a8d97b87abU, 0x7c89ac58ab78bccbU, 0xcaca9ba9c4ca75a9U, 0x9b988cab99b4c698U,
  0x78d8ac8c86b9ab7bU, 0x5c94a89b9459abadU, 0x6bbbb8ab9cd7b5bbU, 0x9a7b768556887babU,
  0x7ba9bacd9aaadb8cU, 0x99c9bc89aa6bc9a9U, 0xbb797a88769a56bbU, 0xa9879b9baa55b997U,
  0xa996b6b48959a5b8U, 0x46a5787a73998899U, 0x94b65c8b7987a597U, 0x9978a29b66a87797U,
  0xa7a9aa72896a6b96U, 0xab589a98cba67ab6U, 0x86767889a5b84978U, 0xaa979aba6684c878U,
  0xc886a789799a8779U, 0x4775a89a95a88a99U, 0xb4969db977a784b7U, 0x8c8a958956c96aa9U,
  0xbb9b77b699998c68U, 0x79a8a9966aa67c78U, 0xaa6876acc4678878U, 0xb7a79cbb77737799U,
  0x8888898998899999U, 0x9898998989888989U, 0x9899899889989988U, 0x9998989999989898U,
  0x8988889998999988U, 0x8889888989888989U, 0x8989999889999999U, 0x9889898889988988U,
  0x9898989899988988U, 0x8899998898998998U, 0x8988998899989899U, 0x9889989998998888U,
  0x9989899988888999U, 0x9999999889898899U, 0x9988988989898888U, 0x8999988989888888U,
  0x8899988899898899U, 0x8999889989898988U, 0x9888999899889888U, 0x9998898888999988U,
  0x8899898888989889U, 0x8889889898888999U, 0x9898998899889998U, 0x8998988988889889U,
  0x8889988989999898U, 0x9998988889899898U, 0x9999898899888889U, 0x9989889988889988U,
  0x8989988888998988U, 0x8988999998889989U, 0x9999898888998889U, 0x9989999898999888U,
  0x9998989999889889U, 0x8988988999888998U, 0x9988889889898888U, 0x9989899888898888U,
  0x9999888998888898U, 0x8989988898889898U, 0x8898998889989989U, 0x9899899988889998U,
  0x9998989989898999U, 0x9998899998999899U, 0x9889888888888988U, 0x9989898989889898U,
  0x8988899898998988U, 0x8999899898898989U, 0x8998898988988999U, 0x8989898889998898U,
  0x9899989989999999U, 0x9898988889999989U, 0x8889888898888888U, 0x8898988898989998U,
  0x8998988988998899U, 0x9998998998989999U, 0x8898989999999889U, 0x9888999899988888U,
  0x9988898899999899U, 0x9899889899889989U, 0x9898998989989989U, 0x9898898898899898U,
  0x9989988989899988U, 0x9998899899898889U, 0x9989989889988988U, 0x8899899999989998U,
  0x8889998899998989U, 0x9989899988888899U, 0x9899999889989899U, 0x8989998889988999U,
  0x8999998888999899U, 0x9888899889999998U, 0x8999989888989989U, 0x9988988999998989U,
  0x9899998889898899U, 0x9899999998899998U, 0x8888999988998988U, 0x9988898988889989U,
  0x8988988899899899U, 0x8898988898998998U, 0x8889998888899998U, 0x9899889889989989U,
  0x8999888898899889U, 0x8889998989899899U, 0x8889998998889988U, 0x8988998888989988U,
  0x9898998888999989U, 0x8889888989898899U, 0x9899998889889999U, 0x9888999988998988U,
  0x9999988989898889U, 0x8898888899999898U, 0x9988998999889899U, 0x8889899888888988U,
  0x8899998889989889U, 0x9898889988899898U, 0x9898989998899999U, 0x8889889899898888U,
  0x8988988989988988U, 0x8898888898898898U, 0x9898999988889888U, 0x8888889988999998U,
  0x8899988899889899U, 0x9888999989898898U, 0x8888898898889988U, 0x9889898889988898U,
  0x8899898889898989U, 0x9899998889898998U, 0x9999999899889888U, 0x8889989988999898U,
  0x8998899898888989U, 0x9889898989998888U, 0x8898999988988888U, 0x8889999999988898U,
  0x9988989889888899U, 0x9898899989989999U, 0x8888898988989988U, 0x9989998889999889U,
  0x9898889899998999U, 0x9889998888999989U, 0x8998889899988898U, 0x9889889998989998U,
  0x8999889999988888U, 0x9888899888899989U, 0x8989988899998989U, 0x8899998898998899U,
  0x9989998998889889U, 0x8998988898999888U, 0x8998988998999989U, 0x9999998899899888U,
  0x9899889899889898U, 0x8998888889899989U, 0x9998889899888999U, 0x8999888888998898U,
  0x9898889989999898U, 0x8899999999888899U, 0x8988899989989989U, 0x9898999898888989U,
  0x8989989989889899U, 0x8988989999998999U, 0x9898989898889999U, 0x8999889999988998U,
  0x8998999999898998U, 0x8899989999889898U, 0x9888898899998889U, 0x9889998888989888U,
  0x9889888899988999U, 0x8998988998989888U, 0x9989998989899989U, 0x8998888889998889U,
  0x8889898998999898U, 0x9998989888898899U, 0x8888899888888899U, 0x8988898889988888U,
  0x9988899998898999U, 0x9989898898888999U, 0x9889899889888899U, 0x9889888899898989U,
  0x9898898899898998U, 0x9988989989888989U, 0x8998999999988988U, 0x8998898888998899U,
  0x8988899899998888U, 0x9988888989989889U, 0x8899998898899998U, 0x8898898989889988U,
  0x9898998999999898U, 0x9888888989889989U, 0x8999989889889988U, 0x8899899999999898U,
  0x8989888989998988U, 0x9999899898899899U, 0x9899898989888999U, 0x9998889998988898U,
  0x8988988989988898U, 0x8989998898889999U, 0x9899899898998898U, 0x9888898898999989U,
  0x9999889989888899U, 0x8999888989999888U, 0x8889998998899988U, 0x9899899889989888U,
  0x8999888989889888U, 0x9889989898989988U, 0x8899999998889989U, 0x9999889898989988U,
  0x9988899898999989U, 0x8898989999899899U, 0x8989889999999989U, 0x9998988898998999U,
  0x9899899989999888U, 0x9998898899989888U, 0x8989999899998889U, 0x9988998988999998U,
  0x9988998898988988U, 0x9999899989998998U, 0x8998998898988998U, 0x8898898888899898U,
  0x9989899889898988U, 0x8898989888989999U, 0x8988889888988998U, 0x8898898998998898U,
  0x9999888998999988U, 0x8899998888898899U, 0x9999898998989989U, 0x9998988998888898U,
  0x9999998898899998U, 0x9889998899899898U, 0x9899888899999998U, 0x8998998898989998U,
  0x9888898889989989U, 0x9899998889998998U, 0x8999999989999899U, 0x8988988899989988U,
  0x8988888989988999U, 0x8899888998888889U, 0x8999898998898999U, 0x8988899988989998U,
  0x8899988889888889U, 0x9899898998899999U, 0x8999988889888988U, 0x9889989889989899U,
  0x9899998989889998U, 0x9988889889889889U, 0x9998999898888888U, 0x8988899998889989U,
  0x8988889889899988U, 0x9888988998998988U, 0x8889899989989899U, 0x8888888898988988U,
  0x9988889899888889U, 0x9989989899988999U, 0x8999898888998999U, 0x8898889988989889U,
  0x9888988899899889U, 0x9898988998889989U, 0x8889988899999989U, 0x8998988889888888U,
  0x9888898889999998U, 0x9998889899999989U, 0x9998998988889889U, 0x9899899899999999U,
  0x9999999989988898U, 0x9988898898898889U, 0x9899998899998899U, 0x8989898899989888U,
  0x8898998898888998U, 0x8888999889999988U, 0x9988998888998988U, 0x8999888989898889U,
  0x8989889898898899U, 0x9888889989988898U, 0x9899988988899989U, 0x8998889898898889U,
  0x9898989998998999U, 0x8899898888998898U, 0x8988998988999889U, 0x8898989899998988U,
  0x9998899889989889U, 0x9999988889888988U, 0x9988888988888889U, 0x8898899898899998U,
  0x8989899898989999U, 0x8899899989888999U, 0x8889988898899898U, 0x9998888988989888U,
  0x9898988998998898U, 0x9889898899989998U, 0x8988998889999899U, 0x8999889889898889U,
  0x8999999899898888U, 0x9998988998989898U, 0x9889888888988988U, 0x9889888898898889U,
  0x9889999899899998U, 0x9898999888899889U, 0x9999898998888899U, 0x8999999898898989U,
  0x8899889899998889U, 0x8898889998888898U, 0x9999988899888999U, 0x8989998989899999U,
  0x8898988898889998U, 0x8888998899988999U, 0x8889888999998988U, 0x8888998999889889U,
  0x8899989889898988U, 0x9889999888888989U, 0x9989899888889998U, 0x9988998998988888U,
  0x8898888898899888U, 0x9888999889898888U, 0x9988999988999898U, 0x9988988989999989U,
  0x8888889998998988U, 0x8989989889889899U, 0x9889998999898998U, 0x8888998898899998U,
  0x9888898898888988U, 0x9888989888989998U, 0x9888899999898989U, 0x9999899898889998U,
  0x8898889989998989U, 0x8898898998888898U, 0x9989999888988998U, 0x9989989889889888U,
  0x9989988999888998U, 0x9899899898998998U, 0x9888998989998888U, 0x9999989999999899U,
  0x9898899898999988U, 0x8888988988899888U, 0x9999988989898889U, 0x8989888989999899U,
  0x9999889899899988U, 0x9889988998998899U, 0x8899899999998989U, 0x8999988888888888U,
  0x8998898899988998U, 0x8998988899889998U, 0x9898899899889889U, 0x9889899889888899U,
  0x9998889898998988U, 0x8898899888888989U, 0x8888989999989988U, 0x8889898998888889U,
  0x8899989898899889U, 0x9998989889898989U, 0x9898889989888999U, 0x9988998898998999U,
  0x9899889989988899U, 0x8888998998998999U, 0x8888888989889899U, 0x9999899889888898U,
  0x9988889899998999U, 0x8898988898989999U, 0x9888888999888899U, 0x8988899889998999U,
  0x9999888899898988U, 0x8989998899899898U, 0x8989888889988999U, 0x8888999899988988U,
  0x9989898888989898U, 0x9998988999989989U, 0x9889989898889989U, 0x9998889888999898U,
  0x8898899989988999U, 0x9989888898989988U, 0x8899889898998998U, 0x9988888889989899U,
  0x8899999998989998U, 0x9989889998889899U, 0x9998999899988898U, 0x8888899988899988U,
  0x9898988999888998U, 0x9989889989888998U, 0x8998899879898898U, 0x8888998888988888U,
  0x9889899898888889U, 0x8889889a99998799U, 0x8998988898888898U, 0x8989888999989999U,
  0x89999989899999a8U, 0x9998898988999999U, 0x8998898999898998U, 0x8999998889989889U,
  0x8988989998899899U, 0x8988899999888999U, 0x9989989989898888U, 0x8988889998898989U,
  0x9899899899898988U, 0x9998989988999898U, 0x8989889988889888U, 0x9a98898988989989U,
  0x9999898888889989U, 0x89898999a9898898U, 0x9899898889899988U, 0x8999898988889899U,
  0x8989888899897988U, 0x9898888898999987U, 0x9998998989898899U, 0x9988889988888889U,
  0x8988989898798889U, 0x8989989998899898U, 0x9998988989988998U, 0x8988888889888989U,
  0x9988888889889889U, 0x7997989988998898U, 0x8899897888999889U, 0x8888878988999888U,
  0x8889898979889898U, 0x8888998998898998U, 0x9888888889889888U, 0x9897899888888888U,
  0x9999899999898889U, 0x8898999898888998U, 0x9989889989987888U, 0x9988898988888899U,
  0x9998889989898889U, 0x8999888988889789U, 0x88a8899898989999U, 0x8999998988889899U,
  0x8989898998989998U, 0xa988999998899988U, 0x9a99899889898888U, 0x8989889899889998U,
  0x9989989898899898U, 0x9898789998899999U, 0x8978988999998898U, 0x9899999898889889U,
  0x8989989898888888U, 0x8889889999998889U, 0x8988889978998888U, 0x9999898898989998U,
  0x8988889998988889U, 0x9898889998999999U, 0x988888998a889888U, 0x99999998888a8999U,
  0x8989889899998899U, 0x9899988899898989U, 0x9898999999899888U, 0x8999888998998898U,
  0x8998999899998899U, 0x9898998998899a98U, 0x7998998898998999U, 0x8998898988a98989U,
  0x9989998889888999U, 0x9888899988999889U, 0x8988898989999888U, 0x9988988889888988U,
  0x8898889999999899U, 0x8999999888888999U, 0x8a89999888899888U, 0x8898988898888989U,
  0x8999898989989988U, 0x89899a89a8888a99U, 0x8989898999989889U, 0x8a98988998989888U,
  0x999a989899899989U, 0x8898898999998988U, 0x9988889889988988U, 0x9998998999899989U,
  0x8989999898998989U, 0x9899999989989998U, 0x9999998888999998U, 0x8998898998898888U,
  0x8898889998888998U, 0x9989998999889998U, 0x9898898998988998U, 0x8999888989989988U,
  0x88989a9989998999U, 0x999898a999888999U, 0x8898999898899889U, 0x8999999999999888U,
  0xa989999989988999U, 0x8899999999898998U, 0x8999888889998899U, 0x8998989898898989U,
  0x8989888989899998U, 0x9889889988998899U, 0x8888889989889998U, 0x9998888989898889U,
  0x9988989899898999U, 0x9878889997999899U, 0x8988988888898888U, 0x8999998888898898U,
  0x7998988998988988U, 0x8999888898899989U, 0x9999999899989998U, 0x9989889898888998U,
  0x8899899988898889U, 0x8999888898889898U, 0x8888998888888889U, 0x8998889988998999U,
  0x9999979988989989U, 0x8988988988989989U, 0x8899898889998988U, 0x9898898988899888U,
  0x8888999888989888U, 0x9888898999999898U, 0x9899899888999998U, 0x8898888888888998U,
  0x9a999a8898897999U, 0x9899898989989998U, 0x8989999999998899U, 0x9898889a89889989U,
  0x99a898899989a888U, 0x8898a88889889987U, 0x98899889899988a8U, 0x9898989988998999U,
  0x89998989889898a9U, 0x8889998988988999U, 0x8988999998998888U, 0x8989899899988989U,
  0x9888988998998998U, 0x9998988889989999U, 0x8898888998999999U, 0x99999a9889989998U,
  0x8989999989988998U, 0x9999998889989988U, 0x9898988988989999U, 0x8988999999899889U,
  0x8998989888888988U, 0x8989988888899899U, 0x888888988998899aU, 0x9988889899a98899U,
  0x88a9998998999888U, 0x8989999889888979U, 0x9898999899899898U, 0x8988898888889898U,
  0x9877899888988978U, 0x8989989988999998U, 0x9998889989898988U, 0x8898997789999989U,
  0x8889888889888988U, 0x8899998889889989U, 0x8899999999889988U, 0x89a8a88999999988U,
  0x8898788999998888U, 0x8888999899898888U, 0x88a9989998988899U, 0x899878899989a998U,
  0x9889889999898999U, 0x9988899899888899U, 0x99998a889a988988U, 0x9899999898888999U,
  0x8889899999989988U, 0x9889998888888899U, 0x8999888999989999U, 0x8988988998898889U,
  0x88988989a8988998U, 0xa989989998989988U, 0x9899898988989899U, 0x9888998989878889U,
  0x8899889888989889U, 0x8898999988999a98U, 0x98a9999888899898U, 0x9998988999888999U,
  0x9999989999988899U, 0x998889989998888aU, 0x9989888999899988U, 0x8999998989a99998U,
  0x9899999899888988U, 0x98899889989a9999U, 0x8998989899899889U, 0x8988898988898889U,
  0x8988898999888888U, 0x9889998888999999U, 0x9988898988989888U, 0x8898898888998898U,
  0x8889989998889999U, 0x8989998998a89998U, 0x8989898898988999U, 0x8899888888898898U,
  0x8889998899888989U, 0x8989898999999888U, 0x9888898888898889U, 0x9799999989888898U,
  0x8988989988888899U, 0x8888899988898888U, 0x8898789898999898U, 0x9888989988988888U,
  0x9889989899889998U, 0x9898988988999988U, 0x9888899889998899U, 0x9989899898999899U,
  0x8889989898799898U, 0x8998999989989898U, 0x8899888999999989U, 0x9988989988998889U,
  0x9988989889999988U, 0x8998999888988988U, 0x888889898888a999U, 0x8898998899899989U,
  0x8988989989899898U, 0x9899988898898999U, 0x9999889888998999U, 0x8999988989989999U,
  0x9998898889988999U, 0x9999898998988989U, 0x8898899988898999U, 0x8999988898889898U,
  0x9888988898989989U, 0x8988999888998899U, 0x9999988998899888U, 0x8999898898888999U,
  0x98aa888889999999U, 0x89899a9988999989U, 0x888898899889a998U, 0x9888989998989899U,
  0x9889889988998898U, 0x8989998989988899U, 0x9998898898889988U, 0x8998898999998988U,
  0x8999999889899999U, 0x8898a99898988998U, 0x9889999888988898U, 0x989a899888889898U,
  0x9888998899898998U, 0x9888988a89888898U, 0x8889888989988998U, 0x99a98898898889a8U,
  0x8899898889889888U, 0x8999988899888998U, 0x8899998999988888U, 0x8999898898989988U,
  0x9898888a99a89889U, 0x998889999888a998U, 0x999889898899899aU, 0x8999988989999999U,
  0x8999888988888998U, 0x9899999989899999U, 0x9998898998898888U, 0x9898898988898889U,
  0xa9998999999a9899U, 0x9899989998999989U, 0x9898989889889899U, 0x8998889888989898U,
  0x888a988898899889U, 0x8999998889999989U, 0x9998899889889988U, 0x8898997999988998U,
  0x8989888998898998U, 0x9898888889998988U, 0x8898898999889998U, 0x9899888998989989U,
  0x98988889a8898899U, 0x8998899989888999U, 0x8998899988898888U, 0x8998988888988888U,
  0x9999988988989899U, 0x9988999989889988U, 0x9988899989898998U, 0x8999899998889a99U,
  0x9998889899898988U, 0x9988898998998888U, 0x9998988898899888U, 0x9999998a88889999U,
  0x9989988898999989U, 0x8899988898898889U, 0x8898988988989989U, 0x9988889888899888U,
  0x9989898898888998U, 0x9898889888988988U, 0x9898998998898798U, 0x9889998998898888U,
  0x8889888989889889U, 0x7998889888889889U, 0x9898898889889879U, 0x9988879998988999U,
  0x9988899999999998U, 0x9988988999998988U, 0x9898998899799888U, 0x9888898998889889U,
  0x8999899889999888U, 0x9989998899999899U, 0x8898879899889888U, 0x8888888899988889U,
  0x9899898998888899U, 0x9988988989988898U, 0x9998998888988999U, 0x8989898999898889U,
  0x9889899888998988U, 0x9988898888988988U, 0x898888898a888988U, 0x8988998989898998U,
  0x8898988998998878U, 0x8988899879988898U, 0x8888888989898a99U, 0x9988888988889988U,
  0x8988899988899988U, 0x8988899988988999U, 0x9998889899999888U, 0x8998998898888998U,
  0x9899989999899999U, 0x9999988998999888U, 0x9899999999999898U, 0x9889898989888999U,
  0x99998898a8989889U, 0x9898888998a99888U, 0x9999899899888999U, 0x8988898898a99888U,
  0x9889998989898998U, 0x8988889898899999U, 0x8998a98898898899U, 0x9999889898989889U,
  0x889998898988999aU, 0x99898889899a9998U, 0x989988989998999aU, 0x8999899999998988U,
  0x8899889987998898U, 0x9999898989999999U, 0x9999998989988998U, 0x8999998998998898U,
  0x9998898788899988U, 0x8899889988899988U, 0x8899988889988989U, 0x7889998989999889U,
  0x99898989988879a9U, 0x9988889899999a88U, 0x99899a8889998889U, 0x8988889988889899U,
  0x9889989888998889U, 0x99999989998a9989U, 0x9998888998888999U, 0x8898888888888998U,
  0x89989889a9888879U, 0x8799888899989998U, 0x8898898998989989U, 0x9888899998899988U,
  0x9889888799989998U, 0x8888989999998899U, 0x8999899889999989U, 0x9899889888899889U,
  0x9989887998989879U, 0x8899898889888899U, 0x8998888999899997U, 0x8889998978989989U,
  0x8898989889989888U, 0x9999888888888898U, 0x9989998997887998U, 0x9988889899999988U,
  0x9989989998989989U, 0xa899988999989999U, 0x89988a8888888899U, 0x9889889998889898U,
  0x8898898989989988U, 0x9989999888888988U, 0x8899988988898998U, 0x8998988898889898U,
  0x898988899899a889U, 0x9989899888989998U, 0x8988798988989897U, 0x9999899898999899U,
  0x88a9899889889889U, 0x88a9889999889898U, 0x889898999a999989U, 0x9998888888999888U,
  0x8988798987889889U, 0x8898898899898898U, 0x8889988888899989U, 0x9999989879989999U,
  0x8898899988989988U, 0x8898998999899889U, 0x9899988898888988U, 0x8989989889898999U,
  0x9989899987999888U, 0x8899999898898899U, 0x8988888898899998U, 0x8889888999898889U,
  0x8888998888879989U, 0x9888889998888889U, 0x8898888997889889U, 0x8988899998998998U,
  0x8998998988899898U, 0x9888999999899899U, 0x8999898889899898U, 0x899989998a898998U,
  0x8899998989989888U, 0x98888999988a8989U, 0x9988988989989898U, 0x8998999989988899U,
  0x8998999899998999U, 0xa899988899898988U, 0x8988999888989a99U, 0x89889988a8899888U,
  0x9989989888a88889U, 0x8988888988999999U, 0x9988999889989989U, 0x9889888998989889U,
  0x9898899899989999U, 0x8888888989999899U, 0x9888987889899889U, 0x8989898988888998U,
  0x9889899888889999U, 0x9889878988889898U, 0x8989998898987888U, 0x8898988799888889U,
  0x8889988889899889U, 0x9998899898999898U, 0x8989999989989999U, 0x9888889889898888U,
  0x8999989998978898U, 0x8889999989999989U, 0x8899988988888988U, 0x8998898989998889U,
  0x8889889989989998U, 0x9998988999898898U, 0x8989988999889989U, 0x888989999a998988U,
  0x8999888898879999U, 0x9988989888989898U, 0x8899989888889997U, 0x8889888988898889U,
  0x99999a9988999989U, 0x998998888889889aU, 0x8899998898888988U, 0x8898988998888888U,
  0x9989999999a98988U, 0x899999899989899aU, 0xa998898889999998U, 0x8999888889988988U,
  0x9899988988998988U, 0x8889989888989999U, 0x9888988998899988U, 0x99898999a9888999U,
  0x8989888898979898U, 0x8898999989988998U, 0x9989999898998998U, 0x8988888899889999U,
  0x9988888989889898U, 0x7999998988989889U, 0x9888997888988998U, 0x9888899888999998U,
  0x8987998998999989U, 0x9988888888988988U, 0x8988979988888888U, 0x8988898988998999U,
  0x9998887898899978U, 0x8898889999899898U, 0x8899988989898888U, 0x9889888888888988U,
  0x8899889998989889U, 0x9998999998898899U, 0x9989988888989988U, 0x9998988888988899U,
  0x8988999899998997U, 0x8889999999989898U, 0x9888988998899899U, 0x9989989988888889U,
  0x8879888899889988U, 0x8988888888999899U, 0x9889889888888988U, 0x8988999988999978U,
  0x8999889989998899U, 0x9889998899898989U, 0x8888999888899998U, 0x89988988a9888999U,
  0x9889989988899988U, 0x9998899899898999U, 0x99989999988999a9U, 0x8989989989898998U,
  0x8989888898898988U, 0x989a898989998988U, 0x9898889998888a88U, 0x9899988989998898U,
  0x8798889888989989U, 0x8989988888988889U, 0x9989889899899898U, 0x9898988998988998U,
  0x8998899988999878U, 0x9888898988988998U, 0x9988998898898888U, 0x8999988898889989U,
  0x8888988899988888U, 0x9898989989989898U, 0x9899898887888988U, 0x9998988898988888U,
  0x8898898898988999U, 0x8898898899899989U, 0x8989888898899887U, 0x9999988878799988U,
  0x9889889989888888U, 0x8999998987899898U, 0x9899998888989999U, 0x8888989898988998U,
  0x8999889897988879U, 0x9898998988888989U, 0x8889899899888897U, 0x8898999898999988U,
  0x8889989898887889U, 0x9898879887989899U, 0x8989888988999878U, 0x8999988799998999U,
  0x8998899889898998U, 0x9888789889898889U, 0x8989988989898998U, 0x9988888889998998U,
  0x8889899889989989U, 0x8898989989998899U, 0x9889988898989998U, 0x8899899999988889U,
  0x8998998989988989U, 0x8898889999898898U, 0x8999999899999998U, 0x8989989999988899U,
  0x88a9a98989a99998U, 0x9998898989889989U, 0x99899988889899a8U, 0x8989999999898999U,
  0x9898889997898899U, 0x9899899899889998U, 0x8998988899899998U, 0x8898889988989888U,
  0x8888989889a99888U, 0x88a999899a889998U, 0x9998898899989889U, 0x8999988989998988U,
  0x9889998999888888U, 0x989899988a998898U, 0x9889988898998998U, 0x8898998889888898U,
  0x9899899898988898U, 0x8989898999888888U, 0x8988999899989988U, 0x8888978999999889U,
  0x9998998898899899U, 0x8999888999999998U, 0x9899898988889988U, 0x8889899988898998U,
  0x9899899889988998U, 0x9998998989898889U, 0x9899888988898898U, 0x8998988889988998U,
  0x9999988898899888U, 0x9888999998889889U, 0x9a88899999998998U, 0x998888898a998899U,
  0x8998999889899889U, 0x9998998998899999U, 0x9998998888888988U, 0x9898989989999889U,
  0x9988999999899988U, 0xa899988899898999U, 0x8999998889898a98U, 0x89889998aa889998U,
  0x9988888a8989a988U, 0x8999898889989a88U, 0x8999899999889999U, 0x98999a8899899998U,
  0x9998988899798898U, 0x8888899988999988U, 0x9889978998898988U, 0x8989888887888889U,
  0x8889988789899889U, 0x8999988999899989U, 0x8899899899888999U, 0x8989888989899889U,
  0x898888999999789aU, 0x8998898988998898U, 0x8899878999888799U, 0x8889889988889899U,
  0x9898999889878888U, 0x9989a79998989888U, 0x8999888888887888U, 0x9988898888887989U,
  0x898889999989898aU, 0x9989999889889989U, 0x8899998888998889U, 0x888989898a989898U,
  0x9799989988998888U, 0x9998899888998798U, 0x8898989889998898U, 0x8888889988998999U,
  0x8999899899899988U, 0x9889898889988988U, 0x9889899899898998U, 0x8988988999999999U,
  0x8898989788998998U, 0x9989889889999989U, 0x9889898889898998U, 0x9999999998999998U,
  0x999899888898a978U, 0x998a99989989988aU, 0x8898999889999998U, 0x9889889998989999U,
  0x8889989998878889U, 0x8999898899789889U, 0x8888988898898898U, 0x9899888899998888U,
  0x9998898998888989U, 0x8888998989899898U, 0x8898998888889999U, 0x8889888888888888U,
  0x7999988888988899U, 0x9899899988888898U, 0x9989988987898988U, 0x9899989889979898U,
  0x9999898999999878U, 0x8898888988999989U, 0x8889988899999898U, 0x8889989887889999U,
  0x9998898989978988U, 0x8889998998899898U, 0x8988999898889899U, 0x9988989998988998U,
  0x8899898999988888U, 0x998998888a899998U, 0x8989998999889999U, 0x9a99888898998998U,
  0x8889988999989889U, 0x9998988888888899U, 0x9998889899989899U, 0x8889888898888999U,
  0x9889989989899889U, 0xa889888899888999U, 0x8898999889999999U, 0x8989999989889999U,
  0x8898999a89899998U, 0x8989888988989889U, 0x9898999999889998U, 0x9898898899998889U,
  0x8889889899899899U, 0x99888988a8899989U, 0x8889999888999998U, 0x8989988898989888U,
  0x9988888899998999U, 0x9888999887888999U, 0x989999889a989989U, 0x9899988898989889U,
  0x8998999998998998U, 0x8999898989988999U, 0x9988878999898899U, 0x8898899988a89989U,
  0x8998888989979899U, 0x8898888999898989U, 0x8998888899988898U, 0x8989888987988988U,
  0x8889888898999988U, 0x8989889888999888U, 0x8889799888889988U, 0x8888888988899988U,
  0x9899888898888898U, 0x8988999999998898U, 0x8899889899899888U, 0x9898888989878999U,
  0x8999999889898989U, 0x8899899998899888U, 0x9988997898988888U, 0x8888889888989888U,
  0x8999988a89989988U, 0x8988888998888888U, 0x89989888998888a8U, 0x9989978998889989U,
  0x8888899897899889U, 0x7989898889898899U, 0x8888898999898899U, 0x8988898988899988U,
  0x8898799898989888U, 0x9989888999888998U, 0x8989889899989898U, 0x8998998988898998U,
  0x9888998888889989U, 0x8999898988989998U, 0x8988898889889987U, 0x8899998989898999U,
  0x9899988a99989998U, 0x98998988989888a9U, 0x8888999898899899U, 0x99999999a9889899U,
  0x8898898888998979U, 0x8988988899999999U, 0x8898898999998998U, 0x9899888988998989U,
  0x9898999898888989U, 0x9999887888899989U, 0x8899898898988999U, 0x8999888888998888U,
  0x8989989899898998U, 0x8899889888988898U, 0x8988999898899988U, 0x9999998899898988U,
  0x9898998888889988U, 0x9988998989999889U, 0x9898998989889898U, 0x8988988989898999U,
  0x8998989899889999U, 0x9899988989999898U, 0x9998998899988999U, 0x8898989898988888U,
  0x8888898989898889U, 0x8998999888889989U, 0x8998899899888988U, 0x8898999998889988U,
  0x8899898889899888U, 0x8899889888889889U, 0x8988898899898889U, 0x8989888889888989U,
  0x8998898898898889U, 0x9988888988898899U, 0x8898898888899889U, 0x8888988988999899U,
  0x8988898989999989U, 0x8988999888989899U, 0x8889989999888899U, 0x8988998988898999U,
  0x8889988999999899U, 0x8899999888889989U, 0x9998898889898888U, 0x8999988988999889U,
  0x9889989989899889U, 0x8899898988989889U, 0x9988988989998889U, 0x9898999898899889U,
  0x8898899898898889U, 0x9888988999888889U, 0x8988899999998988U, 0x8888898998999889U,
  0x8899998988898898U, 0x8999898988988898U, 0x8889889889989888U, 0x8899888899998988U,
  0x9888898888999898U, 0x8998888998888889U, 0x9988989988889998U, 0x9998999899988998U,
  0x8998899888998899U, 0x9988899989898988U, 0x9888889988899898U, 0x8988898889998898U,
  0x9889998988989988U, 0x8898889989888899U, 0x8899898989998898U, 0x8999889889899898U,
  0x9999988989998999U, 0x8888888898999888U, 0x8999988888899988U, 0x8899989888898889U,
  0x9998999998888989U, 0x8888988888989999U, 0x8889889989989898U, 0x8998898889999988U,
  0x8998898999898898U, 0x9989988988888889U, 0x9989989899898988U, 0x9999998999989898U,
  0x9989898889999988U, 0x8888889899998888U, 0x9989898998888899U, 0x9899999888888988U,
  0x8988898889999988U, 0x8889888899898999U, 0x9988999889888899U, 0x9999998889888988U,
  0x8899888888899999U, 0x9898999999889899U, 0x8989888888988898U, 0x8999989998988988U,
  0x9899898898888888U, 0x9888998989889898U, 0x8988999989998898U, 0x9899998998998888U,
  0x9898898989988888U, 0x9998889988898998U, 0x9998999888989888U, 0x9998898889888899U,
  0x9989889989988988U, 0x8888889888988899U, 0x9889998988998888U, 0x8898898988998898U,
  0x9989988888898989U, 0x9898898898898898U, 0x8998899998889889U, 0x9898988998998989U,
  0x8888888998898989U, 0x8999898899999988U, 0x9888898898999989U, 0x9999899888898889U,
  0x9988988889998898U, 0x8988888899998999U, 0x9988999898889999U, 0x9888989988989889U,
  0x8999888999998889U, 0x8988899998889889U, 0x8899889999998999U, 0x9898888988889989U,
  0x8889989988999888U, 0x9898888999988898U, 0x8898888899889898U, 0x8999889998898889U,
  0x9998898899998899U, 0x8988899998888899U, 0x8998898989998899U, 0x8889999988899989U,
  0x8899898899898889U, 0x9999998889999989U, 0x9888888899999889U, 0x8988988989888989U,
  0x8999899999889989U, 0x8889998988989898U, 0x9888899988899998U, 0x8988988999898888U,
  0x9999998998888899U, 0x8898899999888888U, 0x9899899889998998U, 0x9989898989998889U,
  0x8889889998889989U, 0x8998899889999898U, 0x9889998999989898U, 0x8989899888899889U,
  0x8998998998889889U, 0x8989899988998989U, 0x9989988899888998U, 0x9898888888989998U,
  0x8889999988998888U, 0x9889999888899899U, 0x8888999999988998U, 0x9988989888999988U,
  0x9989898988988888U, 0x8889998899898999U, 0x8899898888999888U, 0x9999899989889899U,
  0x9989899988989899U, 0x8989899888988989U, 0x8889999989988889U, 0x9898888898999998U,
  0x9988899988888999U, 0x9989999888899889U, 0x9999888999899899U, 0x9888888889898888U,
  0x9998998988889889U, 0x8999989899899998U, 0x9999889898989899U, 0x9898998989989898U,
  0x8898889988889999U, 0x8888888898998988U, 0x9999988888888999U, 0x8898898889898889U,
  0x8989999989988999U, 0x9999888899888989U, 0x9998999888898999U, 0x9889889988999899U,
  0x9999988898998998U, 0x8899999998999888U, 0x8899898889998899U, 0x8998889898989898U,
  0x9889889999888988U, 0x8988988889989889U, 0x9988898889888988U, 0x9998998999899889U,
  0x9999889898998988U, 0x8899989998898998U, 0x9988889889998898U, 0x9898889888898998U,
  0x9988988888988998U, 0x8998988998988998U, 0x9898989899888989U, 0x9998999988888989U,
  0x8998988899899988U, 0x9989999899988999U, 0x9998899899998888U, 0x8998989899999899U,
  0x9898899888988888U, 0x8889988899888889U, 0x9899988989889988U, 0x8889989998989999U,
  0x9989988898899898U, 0x8889988998988989U, 0x8899888888989898U, 0x8999899999999898U,
  0x9988989998898998U, 0x8889899888989989U, 0x8988998989898898U, 0x8898889999998989U,
  0x9899999898999898U, 0x9989898888989998U, 0x8888889989999989U, 0x9898989889999888U,
  0x8998899989889898U, 0x9899988988888889U, 0x9899898988888988U, 0x8988999999988989U,
  0x9889998899898998U, 0x9998898899899989U, 0x9999898998998999U, 0x8888988889998899U,
  0x8988999889898999U, 0x8899998999888888U, 0x8888989988898999U, 0x8998898999889999U,
  0x9898899889888988U, 0x9889988989889998U, 0x9898888989988998U, 0x8898889898898998U,
  0x9898899899889989U, 0x8999899888988898U, 0x8988898988898898U, 0x9888888998999988U,
  0x8988988898999898U, 0x8888899898888899U, 0x9998898999989989U, 0x8988889888898999U,
  0x8898899899899989U, 0x9898888888989898U, 0x9989988888998988U, 0x9999889899989989U,
  0x8988988888898888U, 0x9989889998898898U, 0x8889899898999989U, 0x9988899989989888U,
  0x9998889998888899U, 0x9988888888899998U, 0x8989989898889998U, 0x9989998988889999U,
  0x8888899999889999U, 0x9998999988988899U, 0x8998998889898999U, 0x8999888889988989U,
  0x8889898898999898U, 0x9998999988898999U, 0x8888989998889999U, 0x8899998899998888U,
  0x8998998888899988U, 0x8999999998998898U, 0x8989989999988988U, 0x9988998988998898U,
  0x8899899998989989U, 0x8999899999888889U, 0x8898889899898988U, 0x9988988899988988U,
  0x9988998888988988U, 0x9989998898899999U, 0x8999888988899998U, 0x9989899999988888U,
  0x9898888998898988U, 0x8898898898888989U, 0x8888889889988988U, 0x9988989899899888U,
  0x9989888989898999U, 0x9999898899999998U, 0x8899989988998899U, 0x8898899998989888U,
  0x8989989989898988U, 0x8898989988899888U, 0x9998898888999889U, 0x9999989988888898U,
  0x8888998888899898U, 0x9889989898988889U, 0x9998888899999899U, 0x9898988899899999U,
  0x9899998998998999U, 0x8888988898999998U, 0x9899889889888998U, 0x8889888898898989U,
  0x9989888999998999U, 0x8898999998988899U, 0x9899898989898899U, 0x8989888899989988U,
  0x8888999988998899U, 0x9888999988889998U, 0x9899988999988899U, 0x8988999898899889U,
  0x9889898988898998U, 0x8889899898988888U, 0x9999888998889889U, 0x9898998889888988U,
  0x8898898989989998U, 0x8898888889889998U, 0x8999889989988999U, 0x8999989989988888U,
  0x9898898989898998U, 0x8888899999899898U, 0x9888999898889989U, 0x9999889998899988U,
  0x9989898988899888U, 0x9898888989898989U, 0x8988898889888899U, 0x9989899989889889U,
  0x9998899889989989U, 0x9898988888988988U, 0x8999889988988898U, 0x8989998888889898U,
  0x8888889888889988U, 0x8988899998899988U, 0x8998999889999998U, 0x9899898988999998U,
  0x8989899899888889U, 0x9899898999998889U, 0x8899999988899998U, 0x9999888898889989U,
  0x9888998899888998U, 0x9888988999998989U, 0x8898988988898888U, 0x9998999898898989U,
  0x9888999988898898U, 0x9888989989989998U, 0x9988888889998898U, 0x9998889999888898U,
  0x8898889988899998U, 0x9898888998999988U, 0x9889888898989998U, 0x8998888989989989U,
  0x8889888988889889U, 0x8999999888899899U, 0x8989888998898899U, 0x9998898898899988U,
  0x8899999898889999U, 0x9998898999888888U, 0x8998888889898888U, 0x9989988898888989U,
  0x9888989998998999U, 0x9998998889888889U, 0x8988988899888999U, 0x8988899888999888U,
  0x8899888898988898U, 0x8998898889889898U, 0x9899988889998899U, 0x9998989988999889U,
  0x8888898898999988U, 0x9888999899989899U, 0x9989888988889899U, 0x8889989989999888U,
  0x8899899899999888U, 0x9888998898888989U, 0x8888989998898988U, 0x9998889888999998U,
  0x9998998898988998U, 0x8988988988989988U, 0x8998898899888998U, 0x9899999888989999U,
  0x8899998899899898U, 0x9888988989888899U, 0x9898999998988899U, 0x9898999998998889U,
  0x8999889899989899U, 0x9999889888988999U, 0x9999999989888999U, 0x8889888998898889U,
  0x8988898889999899U, 0x8998989899989998U, 0x9899988989998988U, 0x8998999888999989U,
  0x9989999898899899U, 0x8999999998889988U, 0x9899998898889989U, 0x8999899999899988U,
  0x9988999898998889U, 0x9898989998999988U, 0x9989998899989999U, 0x8989888988989989U,
  0x8989898889998999U, 0x998998a999999889U, 0x8899889998898898U, 0x9a98999898889998U,
  0x9899888989999899U, 0x8899988889889989U, 0x8889988a98999889U, 0x9989988889998899U,
  0xa889998999998899U, 0x9899998898998888U, 0x9899998988988899U, 0x9988988998988888U,
  0x9988898899898899U, 0x9899898898898989U, 0x8899988898999898U, 0x9989999899998998U,
  0x8889889989888888U, 0x8899998889889989U, 0x8889999888988888U, 0x8989899988888889U,
  0x8999889888988998U, 0x8888898898999899U, 0x8898988988998999U, 0x9988998999889888U,
  0x8999998899889989U, 0x9898888899988898U, 0x8898888889898999U, 0x8988888889998998U,
  0x9899898998989898U, 0x9988998988988999U, 0x9899899988989888U, 0x9888888999888889U,
  0x9988888889998989U, 0x8889889998889989U, 0x8888899899988889U, 0x8888888898989988U,
  0x9988889988889899U, 0x9988889998899889U, 0x8988999899988889U, 0x8989898998898899U,
  0x9899998888889889U, 0x8999889998888899U, 0x9888989899999988U, 0x8988989898989988U,
  0x8998999998988899U, 0x9889888898889898U, 0x8999989899898889U, 0x9888989899898889U,
  0x8989998988999888U, 0x8989a89888899989U, 0x8899899889888899U, 0x9999898889888999U,
  0x8889988899999889U, 0x8898999999989988U, 0x9988898998889889U, 0x9899998988988888U,
  0x8888999889999998U, 0x9999998999999988U, 0x9999999989998898U, 0x9898898989889999U,
  0x9988889898898898U, 0x9898898889898998U, 0x8989899899899988U, 0x9988898989888999U,
  0x8888989989989998U, 0x8988999898889989U, 0x9988889989988899U, 0x9889889998998989U,
  0x9988898989889889U, 0x9988998999999999U, 0x8989989999889898U, 0x9888889998899899U,
  0x8999899888989999U, 0x89899888899a8889U, 0x8988998898899988U, 0x9898898888989998U,
  0x8888988999988889U, 0x8988899999999888U, 0x9988889998898888U, 0x8988999999998998U,
  0x9999898898989999U, 0x8889898989989899U, 0x8899889999998899U, 0x9989899899999998U,
  0x8889888998989888U, 0x9898998988999889U, 0x9999998898889899U, 0x9999898888999888U,
  0x88a8989989998898U, 0x9889889998899899U, 0x8898899988989888U, 0x8889888989988899U,
  0x9889899898888899U, 0x8899988889998988U, 0x8988999889999888U, 0x99898998998888a9U,
  0x8898989889989898U, 0x9888899999999898U, 0x8888999889898898U, 0x8999889888889898U,
  0x9999999889889889U, 0x9899988988898998U, 0x8988998898899988U, 0x8899899989999998U,
  0x9998988899889999U, 0x8999999899988899U, 0x9899999998888889U, 0x9998989898999889U,
  0x8989889888898989U, 0x8998898889988999U, 0x9988988989998898U, 0x9989988888999988U,
  0x9998899898988888U, 0x9898899989989998U, 0x9889888899998999U, 0x8899888889898888U,
  0x8888989889988899U, 0x9999899988899889U, 0x9999889899998988U, 0x9988988899888899U,
  0x9888898899899998U, 0x9998889889999898U, 0x9988888898999989U, 0x9898898998888888U,
  0x8889888999999889U, 0x9899889889889989U, 0x8998988999888888U, 0x89888a9899899999U,
  0x8889899998989899U, 0x9889998998998889U, 0x8888889898988998U, 0x9988a89889899898U,
  0x8898989998998898U, 0x8899889988998988U, 0x9889989999888888U, 0x8888898989898898U,
  0x9889899988989898U, 0x8899989889999889U, 0x8899888889989888U, 0x8899999998888898U,
  0x8899988998889899U, 0x8989998999899889U, 0x8989999989998998U, 0x8889888998899999U,
  0x8989888888899999U, 0x9999999999889998U, 0x9989988888998899U, 0x8888889889888988U,
  0x8889999989998899U, 0x9989999899989989U, 0x89989889a9898889U, 0x9988989899998998U,
  0x9988889989888999U, 0x8989998988899988U, 0x9998898899998898U, 0x8889999999988989U,
  0x9889989889898898U, 0x898999a889999888U, 0x8889988889989899U, 0x9989899889988989U,
  0x8988988999889888U, 0x9899999999888989U, 0x9898988999988999U, 0x8989899999888889U,
  0x8999899899899898U, 0x8988899989899999U, 0x8999988998898989U, 0x8889999888888989U,
  0x9999989898989889U, 0x9889898988998988U, 0x9898888989988899U, 0x8898998988898989U,
  0x9999988888998989U, 0x8999888998898899U, 0x9998999999998989U, 0x99889899a9999989U,
  0x9898989999989889U, 0x8888998989998898U, 0x8888989889989998U, 0x8998899988899999U,
  0x8898999989898999U, 0x9988889888889988U, 0x9988899889889898U, 0x9988898989898898U,
  0x8988999899898898U, 0x8888988999888889U, 0x9899888988898989U, 0x9999988998899998U,
  0x8888898889988889U, 0x9898899989889989U, 0x8989988999998989U, 0x8999989889889898U,
  0x9989998999889988U, 0x9899898898988899U, 0x8899888889888899U, 0x9899889998889889U,
  0x8889988888889899U, 0x8888888998989898U, 0x998989a898988999U, 0x999898899988888aU,
  0x9999999998898999U, 0x9999899988889988U, 0x8889899999998988U, 0x9989998999889988U,
  0x8988888989999899U, 0x9988899988899899U, 0x8988998898988999U, 0x8989988888989989U,
  0x9899888998988898U, 0x8989889988899999U, 0x9999989898899999U, 0x9889989988998988U,
  0x9989988988998999U, 0x9988988988899998U, 0x8999988989999898U, 0x8898899898989899U,
  0x9899898988999889U, 0x8898988888888888U, 0x9989889988988988U, 0x9988899998988999U,
  0x8988988998898899U, 0x8899999989999889U, 0x8888999988988889U, 0x9888889899988998U,
  0x8899889889888899U, 0x8998999988998898U, 0x9988998988989989U, 0x8998899889999999U,
  0x9998889899988898U, 0x8998888998989888U, 0x8988998898888888U, 0x8889898999998988U,
  0x9998888998888999U, 0x8899989888899899U, 0x8898989998989898U, 0x8989898889899889U,
  0x9888998889999899U, 0x9989898989998889U, 0x9889988889999888U, 0x8899999998988888U,
  0x9899998898899888U, 0x9888888888988888U, 0x8988898989988989U, 0x8999999999989998U,
  0x8989988898888989U, 0x8999889989999889U, 0x9888999998888889U, 0x8889898889989888U,
  0x9988988889889988U, 0x8999998998988899U, 0x9989898988988998U, 0x9988889888998889U,
  0x8898888898888899U, 0x9889988889889989U, 0x8988898999989989U, 0x9898988899898889U,
  0x9899989889988989U, 0x9898898988888988U, 0x8888999888988999U, 0x9988988898888989U,
  0x9898899999988989U, 0x9989898989999888U, 0x9889988988998898U, 0x8888898888999889U,
  0x8999999988998988U, 0x8898888888999998U, 0x9998998889989998U, 0x9988989888899989U,
  0x8989988889888899U, 0x9989898989988999U, 0x9988998998899899U, 0x8989989988898888U,
  0x8889999898889999U, 0x8998989889999889U, 0x8898988889988899U, 0x8999898888889988U,
  0x9989888889999899U, 0x9988998889989898U, 0x8898898888988888U, 0x8888998988998989U,
  0x9999988988899889U, 0x8998888899899998U, 0x9989999999988899U, 0x8898988899899898U,
  0x9888888899999888U, 0x8888898889999998U, 0x8889898989889989U, 0x8898989999888999U,
  0x8889989999889889U, 0x9898989888988899U, 0x9998899888998888U, 0x8999999a89999888U,
  0x9898899899898989U, 0x8898899988888889U, 0x9888888999899889U, 0x8988988889889889U,
  0x8999898889999999U, 0x9999989888899998U, 0x8889889899998998U, 0x8988898989898899U,
  0x8999998889888988U, 0x9998998998898899U, 0x9999888899999988U, 0x9998888999989888U,
  0x8989989989899988U, 0x8888899898989889U, 0x9998988889899988U, 0x9889998899899988U,
  0x9989898898989898U, 0x8898999989999988U, 0x8888898889889888U, 0x9998888999989999U,
  0x9989998988988999U, 0x8988999888989889U, 0x8989898888899988U, 0x8998888899889888U,
  0x8998988988988899U, 0x89899988998a8988U, 0x8988988888889898U, 0x8999899898989888U,
  0x9888899998999898U, 0x8889888889998999U, 0x8889988989898889U, 0x8898888989889898U,
  0x8998998998998999U, 0x9888899989888989U, 0x8999989989888999U, 0x9999999889999999U,
  0x8989889988888988U, 0x9989998899898998U, 0x8998989899999989U, 0x8898988888989889U,
  0x8899999989898889U, 0x8988899988988989U, 0x8899898888989899U, 0x9898999888899998U,
  0x9889998898988989U, 0x8998988888888999U, 0x9998999889899998U, 0x8898898988889888U,
  0x9989988988999999U, 0x8889998989889888U, 0x8988889898898999U, 0x8889898989888998U,
  0x8989889999998999U, 0x8898898899999999U, 0x8898999999899989U, 0x9998998999999988U,
  0x9999888898899889U, 0x9999989899889988U, 0x8988888888889888U, 0x8889899898999998U,
  0x8989998988898998U, 0x8989888989889898U, 0x9999898899998999U, 0x9989988989989989U,
  0x8898888999989888U, 0x9899999989989989U, 0x8898889899898988U, 0x9999889998999989U,
  0x8999889899899888U, 0x8889999988898898U, 0x99898888889998aaU, 0x8889899888989899U,
  0x8999889899898999U, 0x8888998888889989U, 0x8888889998998988U, 0x8999889888888889U,
  0x9988888989888988U, 0x8988999998998998U, 0x8988998898999899U, 0x9889898998898998U,
  0x9898889999888999U, 0x9988889888989998U, 0x9988999999888999U, 0x9888989999989988U,
  0x9898999989889988U, 0x9999898899988999U, 0x9988898998999998U, 0x9889889898889889U,
  0xa889889998889999U, 0x8988888898899998U, 0x8889889889899898U, 0x9998889899989899U,
  0x9899988998999898U, 0x8899988889888998U, 0x9999898998999888U, 0x9989988888998899U,
  0x9999999989899998U, 0x8988988889888888U, 0x8998998989898899U, 0x9888888989899898U,
  0x9999989888898888U, 0x9989989898989898U, 0x9899999889888998U, 0x8889999899899988U,
  0x9998889999988988U, 0x9888989898999998U, 0x9998898888889998U, 0x9889999899888989U,
  0x8999998988988899U, 0x8898899888889898U, 0x9988889989999989U, 0x9999898988898888U,
  0x9889889989989998U, 0x9989989998998898U, 0x8889989998998888U, 0x8999989898998988U,
  0x9988889998898998U, 0x8899899898899898U, 0x8999889899988888U, 0x8889998989989989U,
  0x8888999998889999U, 0x8989999989889989U, 0x8989899888899888U, 0x89888989a8889988U,
  0x8989899988999989U, 0x8898898898888989U, 0x9999989999889998U, 0x9988988999998989U,
  0x8989898899899889U, 0x9889898888988888U, 0x9998999898999999U, 0x8889898888988888U,
  0x9899889988998988U, 0x8998989988889898U, 0x8988898999989988U, 0x8888998898989988U,
  0x8898888888999898U, 0x8999999889899898U, 0x9999889998888989U, 0x8898898889899989U,
  0x9889988998889889U, 0x8889899999989899U, 0x9989989989988988U, 0x8898999988989989U,
  0x9898898899898999U, 0x9888989888998989U, 0x8988888888999988U, 0x889888998a989999U,
  0x9898889898888888U, 0x9999989899899889U, 0x8999988899988988U, 0x8988988999988898U,
  0x8988998999889999U, 0x9988898888989899U, 0x9888999989888898U, 0x8898998898988889U,
  0x9899999888999999U, 0x8899899998889999U, 0x9988889889988889U, 0x9888898888899889U,
  0x9888998898988898U, 0x8999989898898989U, 0x8998989888988999U, 0x999899898898a898U,
  0x8898889898888888U, 0x9889999899899998U, 0x8989889889989998U, 0x8998889988998998U,
  0x8899999899888899U, 0x9998988999989989U, 0x8889888988989899U, 0x8999999898999989U,
  0x9898888888998998U, 0x9889998999889999U, 0x8999988889999899U, 0x8898988999899989U,
  0x8898889889889988U, 0x9899988998899999U, 0x8889889888999889U, 0x899898989899a999U,
  0x8899898888889998U, 0x8988989888888898U, 0x8998988889899888U, 0x8999889888898889U,
  0x9989989888988888U, 0x8889989999989888U, 0x8898989889888899U, 0x8998898898a98899U,
  0x8889899989898889U, 0x8888998888988998U, 0x9998988998888888U, 0x8988898898999999U,
  0x9989989998988988U, 0x9898889998889999U, 0x8899898989899998U, 0x8998998999989888U,
  0x9988998988988989U, 0x8899898888888898U, 0x8899999988988899U, 0x9988999899989898U,
  0x9899889999898999U, 0x8989898898989998U, 0x8989998899999889U, 0x8998898998998998U,
  0x8999988988888988U, 0x99a8999998889898U, 0x9989999899989998U, 0x98888a8889899888U,
  0x8899989898889899U, 0x8999888898889898U, 0x9988898999898899U, 0x8998988899998899U,
  0x8989999989898998U, 0x9898999998998998U, 0x9988989898889988U, 0x9988899898899889U,
  0x9889898899998989U, 0x8899899989898898U, 0x9988999898988899U, 0x8889989889999988U,
  0x8988899888998899U, 0x9989989898998888U, 0x8989889989998998U, 0x9988889889899888U,
  0x9888898898999899U, 0x8889989999999998U, 0x9898999889998998U, 0x9988899988888989U,
  0x9899998888888999U, 0x9899989999988988U, 0x9998898999988998U, 0x8988888899889999U,
  0x9999888999888999U, 0x9999889899889898U, 0x8898899988998899U, 0x9998989988899998U,
  0x8989899998888989U, 0x9889988999889989U, 0x8999898998998988U, 0x8898889898998889U,
  0x8898988999998888U, 0x8989989988998889U, 0x8899988899888989U, 0x988889889899998aU,
  0x8999988989988988U, 0x89999889a9999989U, 0x8899898888899998U, 0x9999999889989888U,
  0x9889989888998988U, 0x9998898898888888U, 0x8989999998998988U, 0x9889989899889999U,
  0x9999988998999989U, 0x8898898889888998U, 0x8989889898999888U, 0x8998988989899988U,
  0x9998898998889999U, 0x9999998899889999U, 0x9998998898998989U, 0x8888989889999899U,
  0x8889898899899899U, 0x8988899899989998U, 0x8888998898998988U, 0x8998899898999899U,
  0x9999888888899888U, 0x8889898888888899U, 0x8989888899888988U, 0x9899888898998899U,
  0x8989998888988989U, 0x8888898989899989U, 0x9998899989999998U, 0x89889889a8899888U,
  0x9998988999888988U, 0x9988988899998999U, 0x8998899888898889U, 0x8899889988998898U,
  0x9889998899898989U, 0x9988988899988899U, 0x9888988989899898U, 0x998898988988a898U,
  0x8889898999999998U, 0x8889888888888888U, 0x8998988989999898U, 0x9988998998989988U,
  0x8998889898888989U, 0x8898899998989888U, 0x9998999989989989U, 0x9988998988889898U,
  0x8898888998989999U, 0x9888988998899998U, 0x8999888999898988U, 0x9999898889998888U,
  0x9899989888899988U, 0x8888998988989899U, 0x8989999888898899U, 0x8998899898988989U,
  0x8999899999999988U, 0x9999899899999988U, 0x9898988998888899U, 0x898999888a998898U,
  0x8988898988988899U, 0x8888988898888998U, 0x8998989888888998U, 0x8988999999988998U,
  0x9889988999899888U, 0x8998898999898899U, 0x9889888889898998U, 0x9899989899989999U,
  0x9989888888889899U, 0x8998998988898889U, 0x9899888988889899U, 0x8999989988989899U,
  0x8998988889888988U, 0x8899988898998989U, 0x8989988889898889U, 0x9988999998988888U,
  0x9889999989999999U, 0x9989989999888999U, 0x9989899988989988U, 0x8988998998889998U,
  0x8998989988889998U, 0x8889898999888898U, 0x9898888889989889U, 0x9898898898998889U,
  0x9899899998889888U, 0x9999899888889898U, 0x9998898899989999U, 0x8888988988898888U,
  0x8998988899998899U, 0x9988889898989989U, 0x8998998989899999U, 0x8889988898888998U,
  0x8899899898889898U, 0x9989889898899989U, 0x9999988898898988U, 0x9888998888899898U,
  0x8988988889899998U, 0x9999999988998989U, 0x9888a99999889988U, 0x9989989898898998U,
  0x8888888988889889U, 0x9999888899989998U, 0x9888998988889889U, 0x8898898899899888U,
  0x9888898898988899U, 0x9898989999989898U, 0x8888899998998989U, 0x9888999989989888U,
  0x8988998988999899U, 0x8999898988999988U, 0x9888999898898889U, 0x9998889889899999U,
  0x9898988989999889U, 0x9899898899988888U, 0x8999988889989888U, 0x9998999988888889U,
  0x9898888889989988U, 0x9899989988889899U, 0x988999a999988998U, 0x9989999988899998U,
  0x9998999888898988U, 0x9889989999899989U, 0x8889899988899898U, 0x8889898999889888U,
  0x9988998998999888U, 0x8989898899898999U, 0x8989899888998899U, 0x9999988898989889U,
  0x9898998988989998U, 0x9888889988899899U, 0x9998899898889998U, 0x8989989898888899U,
  0x8889999998988989U, 0x9989989899889998U, 0x9999999899999888U, 0x9999998898898999U,
  0x9988988988999998U, 0x8888999989998989U, 0x8989988898999988U, 0x9999988898988888U,
  0x8998988898888889U, 0x9999898988898989U, 0x8998889889988999U, 0x9888998988889889U,
  0x9889988999999899U, 0x9989988989999989U, 0x8999888988988999U, 0x9899889888988988U,
  0x8898898989988888U, 0x9989888889989998U, 0x9898899989889898U, 0x8989889998889888U,
  0x8988989899898998U, 0x8889888889989988U, 0x9988898999889989U, 0x9898999888989899U,
  0x9989988888888999U, 0x8999888988998999U, 0x9888998899999989U, 0x8989998998988999U,
  0x8998889999888889U, 0x8998998889899899U, 0x9999989899889998U, 0x8989899898999899U,
  0x8888889888899889U, 0x8998988999889989U, 0x8889999899998899U, 0x9989898989998899U,
  0x9899899999898889U, 0x9989889899988989U, 0x8999988988889a99U, 0x8998999899888889U,
  0x9889888999999999U, 0x9998888899898898U, 0x888899989a8a9888U, 0x8989899999998988U,
  0x9899888898898999U, 0x8898989889999899U, 0x8989888989988899U, 0x8988988899988899U,
  0x8888999899889999U, 0x9998888889999998U, 0x8988899999999998U, 0x8998988998988889U,
  0x9899989999898899U, 0x9888889988899888U, 0x9999899888999888U, 0x8888999898989899U,
  0x8888889989898998U, 0x88989888899898a8U, 0x8989998999888998U, 0x8999889889999898U,
  0x8999999988889988U, 0x9989999889988899U, 0x8998998899998989U, 0x9889898899998989U,
  0x9999999898899989U, 0x9899998988898989U, 0x8989988998898898U, 0x8998899888989998U,
  0x9988999989989999U, 0x8899998898898889U, 0x898988888888998aU, 0x898999998aa89998U,
  0x8999989888998989U, 0x8899889998988988U, 0x9989889899889999U, 0x8989888889999888U,
  0x9888899999889899U, 0x9999989898899998U, 0x9999899889899988U, 0x8998998999999898U,
  0x9888999989998988U, 0x8989999889898899U, 0x999899a899888988U, 0x9999988888998889U,
  0x8899998999899998U, 0x98898988a9989988U, 0x9999888999998a88U, 0x8998999989889899U,
  0x8988989898988898U, 0x8889998898989888U, 0x9988998999989989U, 0x9998889899999888U,
  0x8988889988899898U, 0x9899988898988998U, 0x8998899999998998U, 0x8889989889998898U,
  0x9999989998899899U, 0x9999899988898989U, 0x9998988999998989U, 0x8989999888899998U,
  0x8988899989999998U, 0x8989899998888998U, 0x9989998999899988U, 0x9888989998988889U,
  0x8988988899988899U, 0x8989999988988988U, 0x9989988889989889U, 0x9898898988999888U,
  0x8989888989998988U, 0x9989999889899988U, 0x8999988989899999U, 0x8899899998898988U,
  0x8899998899999888U, 0x8988898889889898U, 0x8988899889988889U, 0x88999a8889899899U,
  0x9898899888898989U, 0x8888999898898889U, 0x8989988899898899U, 0x8889898999a89899U,
  0x8999899899999988U, 0x9989898888888998U, 0x8889988999988899U, 0x8898899988899999U,
  0x9989989998998989U, 0x9989988998888888U, 0x9889989999898888U, 0x9999889989999889U,
  0x9898999988999988U, 0x8888888889999998U, 0x9998888989989998U, 0x8989898999989899U,
  0x9988989989998988U, 0x889998989a888999U, 0x8988899889988989U, 0x9999898999988898U,
  0x8989889888989999U, 0x8999999898999999U, 0x8989988888899988U, 0x9989998999999988U,
  0x8889999998998899U, 0x8988988988999988U, 0x8889999889898889U, 0x8989899998998888U,
  0x8899888999989888U, 0x8999989889888999U, 0x8999988999888899U, 0x8898898898999998U,
  0x8898888999999888U, 0x9989998989989999U, 0x9899989899888989U, 0x9888999899898998U,
  0x8898889988998888U, 0x9888999899999888U, 0x9989899989989998U, 0x8989898898999998U,
  0x8898889998989999U, 0x8898989989898999U, 0x8888999899888898U, 0x9988898999999898U,
  0x9988888899988999U, 0x9889989988999989U, 0x889988888888888aU, 0x8898898999998899U,
  0x8889899999889999U, 0x8888898989988a89U, 0x9898999899999889U, 0x9988999898998899U,
  0x9a89888889999899U, 0x8988888988888998U, 0x9999889889998999U, 0x9888899989988988U,
  0x8889999999899999U, 0x8998888999999998U, 0x8999998889998899U, 0x9988888889a89888U,
  0x8899998998899899U, 0x8998889999999988U, 0x8888989899889989U, 0x8989999888998898U,
  0x8888888898989898U, 0x8988999999889988U, 0x9898899898988999U, 0x9998889888888899U,
  0x8999999899899889U, 0x9889989888889889U, 0x9898998989888999U, 0x8999989889989899U,
  0x8999989989889988U, 0x8998899888899988U, 0x8899888888998989U, 0x8998898889889989U,
  0x9898899988999898U, 0x9988aa9888899999U, 0x8998898899898898U, 0x8999899898899899U,
  0x8889898999988998U, 0x9988989998888998U, 0x8989899898998898U, 0x9889999989889999U,
  0x8898889898999889U, 0x8999989988898899U, 0x9998989899889898U, 0x8988999888988898U,
  0x8988998998988999U, 0x9889899999988898U, 0x9989999988898999U, 0x8998988988889988U,
  0x9998988989989889U, 0x9998889999898989U, 0x8998888989898888U, 0x88888a9998898898U,
  0x9899989998888899U, 0x8899898898988989U, 0x8899889989989989U, 0x8988998998998989U,
  0x9888989988999899U, 0x8988888889998889U, 0x9889898989899998U, 0x8889988899888898U,
  0x9899888899899988U, 0x989a888898998998U, 0x8988988888888998U, 0x9898999898898998U,
  0x9a98988898898899U, 0x8898898989999989U, 0x9898898999888999U, 0x8889899999998898U,
  0x8988988988988998U, 0x8899988988898998U, 0x898889999a999989U, 0x9998889899988888U,
  0x8899998999898988U, 0x9989888899999898U, 0x889989a899888889U, 0x8889988998998998U,
  0x8999898899988998U, 0x8899999999999a88U, 0x888889889899a988U, 0x9998898889889899U,
  0x8a889899889a8889U, 0x9988889989998999U, 0x8888889889999989U, 0x8988899998899899U,
  0x8999888988998999U, 0x8998888899899999U, 0x9899999998889899U, 0x89989998a9999888U,
  0x9898889998988889U, 0x8989898898898888U, 0x9888899998888989U, 0x8889899998998998U,
  0x8988988898889989U, 0x8998899899988998U, 0x8999889888988899U, 0x9999889999888999U,
  0x8989898988898898U, 0x8888898989898a89U, 0x9998889888899989U, 0x9998888899998898U,
  0x8988888899998898U, 0x9998988998999888U, 0x8889998888899999U, 0x8998888889998899U,
  0x8899899898889899U, 0x9999898998898998U, 0x8899889888988889U, 0x88888988989899a8U,
  0x9999888988898998U, 0x9989999899989989U, 0x8988999889998899U, 0x8889988989988999U,
  0x9898998998999999U, 0x98a8888999899988U, 0x9899899998998889U, 0x9988888988999989U,
  0x9899899889889898U, 0x9988988888988889U, 0x9998998889999988U, 0x9889998898999989U,
  0x8998998989999898U, 0x8888988898888998U, 0x9889989899889899U, 0x88999888888a9989U,
  0x9999899999899999U, 0x9889888889889998U, 0x8a88898898988889U, 0x8888898899899898U,
  0x8989899888899898U, 0x9988888888998898U, 0x9998898888898889U, 0x8988898889898899U,
  0x8988889998889889U, 0x8989889988889988U, 0x8898889889898989U, 0x9899999999899888U,
  0x8999999988899989U, 0x8998899988998889U, 0x8998899989999889U, 0x8989888999988998U,
  0x9989999998999898U, 0x8888988999889888U, 0x888888a888898888U, 0x8889888898998898U,
  0x9a98888899999899U, 0x8998999889888989U, 0x9899889989889989U, 0x98998998989a9889U,
  0x8988998988898988U, 0x9989998999889989U, 0x9889988888998898U, 0x9988888888989989U,
  0x9989988998899889U, 0x9998899898899989U, 0x8899899988998889U, 0x9998988999888898U,
  0x8998899899998889U, 0x9888989888999889U, 0x9898998998899999U, 0x9898898889988998U,
  0x8998989988888989U, 0x8989889989889999U, 0x9899989989988899U, 0x9988888888999989U,
  0x9989999889899899U, 0x88989989888988a9U, 0x8998889989988998U, 0x8988988899889888U,
  0x8989899a89999999U, 0x9988898989898898U, 0x8999888999988999U, 0x8988999999899989U,
  0x9988888998989999U, 0xa988889999888889U, 0x9999898998989988U, 0x8899888999898899U,
  0x9989898998899998U, 0x8998899999989889U, 0x8888989889898988U, 0x8898988889899898U,
  0x9889998899888889U, 0x9989899988898899U, 0x9888889888889998U, 0x8888898889888988U,
  0x88a9888999999988U, 0x9999888998888988U, 0x8889998998998898U, 0x9989988999889988U,
  0x9898898998889888U, 0x8998998999889889U, 0x8988899899998898U, 0x8889998899999988U,
  0x8898999988998988U, 0x9998999989999999U, 0x8999888899998989U, 0x9988999899999999U,
  0x8898899998898889U, 0x8989899888989998U, 0x9899999989889989U, 0x9888998998998898U,
  0xa898988898889899U, 0x9999999988998889U, 0x8989888998899898U, 0x8988898989899999U,
  0x9888988889989999U, 0x9889999899998998U, 0x8888889989998988U, 0x8888899998999889U,
  0x8889888889888888U, 0x8999898999989999U, 0x8999988998989889U, 0x8888898889999889U,
  0x8989989989989988U, 0x9889888989999989U, 0x9999898889998989U, 0x8899998999999899U,
  0x9898989899898898U, 0x89a9989898889999U, 0x8988999998889999U, 0x9999888989988989U,
  0x9998899889999888U, 0x8899898898989889U, 0x9a98898888889899U, 0x8999899888998898U,
  0x8988888898899898U, 0x8999889999999988U, 0x8989889999898998U, 0x9998888898998888U,
  0x9989888898999989U, 0x9998999898989899U, 0x8889999888998889U, 0x9999889889898998U,
  0x8898898998999899U, 0x8988989989888889U, 0x9999988989889999U, 0x9998888899998898U,
  0x9898888898889989U, 0x9888999888988888U, 0x8989889999888999U, 0x8899989898899898U,
  0x8888888889999889U, 0x8998999998999898U, 0x9898999989999888U, 0x9889998989899889U,
  0x9989999898999999U, 0x8989899899898999U, 0x8989988989888998U, 0x8999999899999998U,
  0x8889988899999999U, 0x8898999998998998U, 0x9899899988989898U, 0x9989888898989999U,
  0x8889989899898899U, 0x8889988889898899U, 0x8998998899999889U, 0x8888988999989998U,
  0x9898889899899998U, 0x9898889999999998U, 0x9889889988988988U, 0x9998899999889998U,
  0x9989988998888989U, 0x8989998988899988U, 0x8888899899988888U, 0x9988899898988999U,
  0x8899888999989999U, 0x8899899999899888U, 0x8888989999988899U, 0x9988889988889889U,
  0x8889989988888989U, 0x8998998889999899U, 0x9989998898989999U, 0x8899898888889889U,
  0x8889999888999999U, 0x9989898999999999U, 0x9898999988888889U, 0x8889898998889888U,
  0x9889888998998898U, 0x9989888998889988U, 0x9889999888999989U, 0x8989889989899898U,
  0x9999999989999998U, 0x9998899988999999U, 0x9989888889998888U, 0x9889888999889999U,
  0x9899888999898898U, 0x9988989989898889U, 0x9889988999898899U, 0x8998898998988889U,
  0x9989988999988989U, 0x9889899889999899U, 0x8999999888988889U, 0x99989989a9999898U,
  0x9988998899898998U, 0x9889888889888899U, 0x9898898889988899U, 0x8888889989899989U,
  0x8998899889998898U, 0x8899898898889899U, 0x9899989899899888U, 0x8889888899989988U,
  0x9989899989989989U, 0x8888988889889888U, 0x8899898898988998U, 0x8998889988888899U,
  0x9898899898888889U, 0x8988899998999899U, 0x9889898898999988U, 0x9988888889898888U,
  0x8889988988999899U, 0x8988989898888989U, 0x9889989888898999U, 0x9888889888999998U,
  0x9999889899889998U, 0x8998888899888989U, 0x9898999998899889U, 0x8899889999988889U,
  0x8989999988898889U, 0x9898998989988888U, 0x9999999889999898U, 0x8a99888989989888U,
  0x8999989889998989U, 0x9988999889888999U, 0x8889899998999998U, 0x8988988888988899U,
  0x9999899898989899U, 0x8999999998889998U, 0x9999989899998889U, 0x9998999998899889U,
  0x8899899a99998988U, 0x8998889889998998U, 0x8888898999888998U, 0x9989898989888999U,
  0x8988999898998898U, 0x8989989899888888U, 0x9888998999999889U, 0x9898989898999898U,
  0x99898988988a9999U, 0x9888898989988989U, 0x8998999988989989U, 0x9989889998988898U,
  0x9898898998999899U, 0x9889889989998888U, 0x9998898999989998U, 0x9999998998889998U,
  0x9888898998898988U, 0x8999888888998888U, 0x9998998988898989U, 0x8898998898998998U,
  0x8888899898889999U, 0x8898999999989888U, 0x9999988989888889U, 0x8899989899988988U,
  0x8999888898988889U, 0x9899898989998988U, 0x8899999889888999U, 0x8888899999988888U,
  0x8988999889989989U, 0x9989999989899898U, 0x8889999888998889U, 0x9999999889898998U,
  0x9899988989989999U, 0x9889898898889889U, 0x9889989989989899U, 0x9889888888998989U,
  0x9899989988999999U, 0x9899889998998998U, 0x9998998899999989U, 0x8998999989899898U,
  0x9999999998988889U, 0x9898898889899998U, 0x898999998899999aU, 0x9989998989988888U,
  0x8989899899999898U, 0x9899989899988889U, 0x8888888998989989U, 0x9889889989998988U,
  0x9999988988898898U, 0x8888998999899999U, 0x9889999988988999U, 0x9999898888888989U,
  0x9898998889998999U, 0x9988999899989999U, 0x9989988988999889U, 0x9899999989998998U,
  0x8899998999989898U, 0x9989998899888999U, 0x9888889988889999U, 0x8889888999889888U,
  0x9988988888899888U, 0x8888999998999899U, 0x9899999899899888U, 0x8898998998888899U,
  0x9888999998998888U, 0x9899999889898889U, 0x8998989889888888U, 0x8989898989989889U,
  0x8889899898899999U, 0x8888988899999998U, 0x9999899999989998U, 0x9889888999998998U,
  0x8989898998889988U, 0x9889989888888989U, 0x8898998888899888U, 0x8988998999989888U,
  0x8898898989998989U, 0x9999999888989999U, 0x9988888898998899U, 0x9899888879999899U,
  0x9999889998998999U, 0x9899899989998988U, 0x8989998989899889U, 0x8999999899999888U,
  0x8888888899889899U, 0x8888999898988899U, 0x9998999989889988U, 0x9889898888889898U,
  0x9998999999889899U, 0x8988898889888899U, 0x8888889999988899U, 0x8998888988999889U,
  0x9988988999989889U, 0x7998988898989898U, 0x8888889899898a89U, 0x8989888988898989U,
  0x8988899888888898U, 0x9999898989899999U, 0x9989899898888888U, 0x9998999898889898U,
  0x8998998889899888U, 0x8899888988998998U, 0x9999989888898989U, 0x9998889899989989U,
  0x8898889888999898U, 0x8988888888899989U, 0x8999888999999989U, 0x9899998899998988U,
  0x9988988998998988U, 0x9999998889989899U, 0x9998989999888889U, 0x9999988989898999U,
  0x99898899899a8888U, 0x98a9998999999999U, 0x9998998888988898U, 0x9999899889998988U,
  0x8889888988899989U, 0x8989899889899998U, 0x9988999998998889U, 0x9998999899889999U,
  0x8988888899999898U, 0x8888999899899999U, 0x9889998999898888U, 0x9898998989999999U,
  0x8899888988999889U, 0x9989899999898988U, 0x9898899988998989U, 0x9998898888989989U,
  0x8a99998988898988U, 0x9989989999999988U, 0x8898989888888998U, 0x9998988998899998U,
  0x8998898889988989U, 0x8998989988999998U, 0x8989988989998999U, 0x9988898898988998U,
  0x8998998889889999U, 0x9888998898989989U, 0x9998899889899899U, 0x8889988988999899U,
  0x8889898988889889U, 0x8899899999989898U, 0x9989988998988989U, 0x8988889998998899U,
  0x9898888989988889U, 0x9898988898988888U, 0x9999898988988999U, 0x9988889999899889U,
  0x9999998999988999U, 0x9898998888888899U, 0x8898889989899988U, 0x8899998988989898U,
  0x8899989898889889U, 0x9998998989898888U, 0x9899898898898999U, 0x9989988999888899U,
  0x9898988889898989U, 0x9989888999998998U, 0x9999999899899989U, 0x8999898898889899U,
  0x9898998888898989U, 0x8999999998898999U, 0x9899989998998898U, 0x9898999998899998U,
  0x8889889998898899U, 0x8988999998999998U, 0x8a88898998998a99U, 0x9998889998989898U,
  0x8988889898899899U, 0x8988889998989a99U, 0x9988999999999889U, 0x8889888888989999U,
  0x8889989898988899U, 0x8898998988888888U, 0x8988989999998888U, 0x9998989998998898U,
  0x99898898889a9988U, 0x9998998999889998U, 0x8989898989889888U, 0x8999999899999999U,
  0x9998998899989999U, 0x9999989999988998U, 0x9988999888898888U, 0x9899889888999888U,
  0x9999988898999898U, 0x9889898989989898U, 0x9999999999889998U, 0x9989899899888889U,
  0x9899989989898898U, 0x8889898898888998U, 0x8999898889889898U, 0x9998989998989999U,
  0x9899889899989998U, 0x8888889889989999U, 0x9888998989999898U, 0x9898998889989898U,
  0x9989989999988989U, 0x8989888899999989U, 0x9898899888988899U, 0x9898998999899889U,
  0x8899999989899898U, 0x8998888888999998U, 0x8888999899898989U, 0x9889899989899899U,
  0x9999989898888888U, 0x8989989989888889U, 0x8889888888889989U, 0x8889998899999899U,
  0x9998898989988989U, 0x8888898889999999U, 0x8998998989899889U, 0x9999988999888899U,
  0x8898888988998999U, 0x9998989888888889U, 0x9899989989998898U, 0x8998998999989989U,
  0x8899888898899889U, 0x8899999899988889U, 0x8898899989899899U, 0x9999999999888899U,
  0x8998898998998888U, 0x9898989998899899U, 0x8889899989999889U, 0x8988889999988998U,
  0x9999989898989998U, 0x99a8998998898889U, 0x8999999899888899U, 0x89988989998a8899U,
  0x8888989899999889U, 0x8988a88899988898U, 0x9999998998898989U, 0x8889998899989889U,
  0x8998988998989989U, 0x9999888898999888U, 0x9888898889989888U, 0x8899888889888989U,
  0x8898999999988889U, 0x8889988999899998U, 0x9988998888898998U, 0x8989999899988988U,
  0x9999989898899898U, 0x8989999898888988U, 0x8889999988999988U, 0x8889989998999898U,
  0x8988988899989998U, 0x9999889999899898U, 0x8889999998988999U, 0x8989889889988998U,
  0x8989899989889998U, 0x8989998898888998U, 0x8889899988988899U, 0x8989888989898999U,
  0x8988988888888999U, 0x8989899888899889U, 0x8989988988998888U, 0x9988899999988999U,
  0x8999998899888998U, 0x8998888989899999U, 0x9889888999998989U, 0x8888899988998989U,
  0x9899998988999899U, 0x9898898989899889U, 0x8999888998899898U, 0x8888988888998998U,
  0x8889898998988889U, 0x8898988888998988U, 0x8889989988899989U, 0x9999988898998998U,
  0x9898889898989889U, 0x9898898898988988U, 0x8899889888988989U, 0x8889888999999998U,
  0x9998988988899899U, 0x8899888989889889U, 0x8999999989988899U, 0x9898888999888998U,
  0x9998998899899898U, 0x9889898889999999U, 0x9999898988889989U, 0x8889999899898889U,
  0x8898999988999998U, 0x8999888889989898U, 0x8999888888989898U, 0x9989988988888898U,
  0x8989989989888998U, 0x9898899998898888U, 0x8998899898898898U, 0x9888999898988888U,
  0x8899889988999989U, 0x9898888989998989U, 0x9999988998889888U, 0x8889988999888889U,
  0x8988988999998898U, 0x8989998899899998U, 0x8998988888989988U, 0x8989999998989989U,
  0x9889999998989989U, 0x9898888898989999U, 0x9998889998988899U, 0x8888989898989899U,
  0x8988899888988999U, 0x8889899998899899U, 0x9898989988888988U, 0x8899888898888999U,
  0x8989899988899998U, 0x9988988898898888U, 0x9998888998889998U, 0x9989899999888989U,
  0x8899899899999888U, 0x9999999989989898U, 0x9998988899989989U, 0x8899999899898889U,
  0x8989988889888988U, 0x9998989988899998U, 0x8888889988899888U, 0x9898888988998888U,
  0x8998998889888998U, 0x9899889889998988U, 0x9998999898899899U, 0x9889989888888989U,
  0x8889989988989989U, 0x9888998899998899U, 0x9989889899999899U, 0x8989999988898988U,
  0x9989988889999898U, 0x8999998898888898U, 0x9899899898988999U, 0x8888989998998989U,
  0x8889889988888989U, 0x9989889898999989U, 0x9998988988999999U, 0x8898989898999998U,
  0x8989989899999999U, 0x8999988999998998U, 0x8998998998898899U, 0x8899888988999988U,
  0x8988888989889988U, 0x9999989998989889U, 0x8889999988889888U, 0x9988899989999989U,
  0x8899899898888989U, 0x8888999989888888U, 0x9889889898988898U, 0x9899899988989988U,
  0x8898999989899998U, 0x9998898998999889U, 0x8899988989889998U, 0x8999988999999899U,
  0x9888889888988899U, 0x9989889899999989U, 0x8989998989988899U, 0x9889898899998889U,
  0x8999989999899999U, 0x9899899899988888U, 0x8898888989898899U, 0x9989898888988898U,
  0x8889889988888889U, 0x8888998999888898U, 0x9989888898888989U, 0x9899998988999999U,
  0x8899989898898898U, 0x8988989989889889U, 0x8999998999898999U, 0x8898998898998898U,
  0x9999998889888988U, 0x9888899999988988U, 0x8989899898988898U, 0x9889999888888999U,
  0x9999888888898898U, 0x8899889898898899U, 0x8998999989888888U, 0x9999898898889998U,
  0x8988998989889999U, 0x9889989999989999U, 0x9999898898889889U, 0x8898899988898998U,
  0x9899988998988998U, 0x9989889899988898U, 0x9999899999898998U, 0x8998989889999889U,
  0x8888999888999889U, 0x8989888989988889U, 0x9999888898998899U, 0x8898889998998888U,
  0x8889998998889899U, 0x8889999999899898U, 0x9998988998999898U, 0x9999889888899989U,
  0x8898998999999899U, 0x8988988998888999U, 0x9989998988898888U, 0x9889898999988888U,
  0x9899989989989999U, 0x9988898988998999U, 0x8889989999899999U, 0x9989898998989888U,
  0x9898999998988989U, 0x9888989889899998U, 0x9888988889899998U, 0x9999989889888889U,
  0x9999988888999998U, 0x8998988899999998U, 0x9898998899999898U, 0x9889899888998989U,
  0x9889898988999989U, 0x9888989989998998U, 0x8999998899888988U, 0x8999888999989898U,
  0x9989889898998898U, 0x8988889899899899U, 0x9898989899999989U, 0x8988999998998888U,
  0x9889989889999999U, 0x8989899988899898U, 0x9899898888989899U, 0x8989999988898889U,
  0x8988888889988999U, 0x8898898889898988U, 0x9889998899998989U, 0x8899898889888989U,
  0x8889899889888899U, 0x9989999898999889U, 0x9988988889889988U, 0x9898899988998988U,
  0x8889888999988989U, 0x9898999999888889U, 0x8998998998888899U, 0x8988989999998889U,
  0x9888999898899989U, 0x8899899898999999U, 0x9888888998899988U, 0x9898988988998898U,
  0x9899889998898998U, 0x8989888998889999U, 0x9898989898898888U, 0x9889999889898898U,
  0x8888899989888889U, 0x8898999988999888U, 0x8999998899989889U, 0x8998898888889999U,
  0x9888989988998989U, 0x9899988998899988U, 0x9989899988889889U, 0x9989999998889989U,
  0x9989999899999889U, 0x9998999898998998U, 0x9999988989899999U, 0x9989898889898998U,
  0x8888999899899988U, 0x9889899898998998U, 0x9988898999899899U, 0x9889989888898888U,
  0x9899898999898988U, 0x9899898988899989U, 0x9989889898998999U, 0x8899899889888888U,
  0x8989899998999999U, 0x8889899999989888U, 0x8899988899888999U, 0x9999999899888999U,
  0x8889988898989999U, 0x9989998899889999U, 0x8989889989988899U, 0x8999988988989999U,
  0x8989988989989899U, 0x8899999999888889U, 0x9889899989898889U, 0x8988898898899899U,
  0x9889989988898998U, 0x9998889988889889U, 0x9998989999989999U, 0x9988988889988989U,
  0x8988899999999999U, 0x9999898888989899U, 0x8898898898898989U, 0x9999998989889898U,
  0x9889889899988999U, 0x9998899888999888U, 0x8999898999888999U, 0x9899988998999889U,
  0x9988888889998989U, 0x8889899989988999U, 0x9898988899899989U, 0x9989898999898888U,
  0x9888999899888998U, 0x9988898889889898U, 0x8988998989999888U, 0x9988989898998998U,
  0x9989899999898988U, 0x9989899898999888U, 0x8888888999988889U, 0x9899988999998999U,
  0x9998999988998898U, 0x8998889999899888U, 0x8888889889989888U, 0x8988999889889998U,
  0x9999889889988989U, 0x9988989999988999U, 0x8899898999898999U, 0x8888889999988888U,
  0x8998988888988889U, 0x8988988889999888U, 0x9988998999899989U, 0x9999999888998989U,
  0x9898989888998888U, 0x9998899898999888U, 0x8998989899889889U, 0x9888889899899899U,
  0x9898899998889888U, 0x9898988889998899U, 0x9898989998888988U, 0x9998988988998889U,
  0x9988898888899888U, 0x9998988899898988U, 0x8988899989888899U, 0x8889989888988889U,
  0x9989998998889888U, 0x9888898988888998U, 0x9898888989998999U, 0x9988989899999998U,
  0x8889899888898899U, 0x9989998989889999U, 0x9888988999998889U, 0x8989899889998899U,
  0x9988988998898998U, 0x8998898989889899U, 0x9898898888889889U, 0x9898898989989898U,
  0x9888989989898988U, 0x9888988989998998U, 0x8999998889988989U, 0x9989888898899889U,
  0x9888898899888998U, 0x8998898898899999U, 0x9989889989898998U, 0x8989888999988888U,
  0x9999898999999989U, 0x8999989989999889U, 0x8998999988998989U, 0x9899989888898898U,
  0x8899989899898888U, 0x9989999998899989U, 0x8999989898899898U, 0x9899888998989888U,
  0x9998888899989999U, 0x9888999888898999U, 0x8899989888898999U, 0x9899989888998999U,
  0x9899988888889899U, 0x8889999989888999U, 0x9999989888998899U, 0x8998998888998998U,
  0x9999999999989899U, 0x9988989898889999U, 0x9989888998889998U, 0x8989898888999998U,
  0x9899999989888989U, 0x9988999888898999U, 0x8898899999999988U, 0x8889999898889899U,
  0x8989888898989999U, 0x8899898889898999U, 0x8889988899999898U, 0x8888988999898888U,
  0x8989888989898988U, 0x8999889988989888U, 0x9999998888989888U, 0x9999998888889999U,
  0x9998988998988899U, 0x8998988998889899U, 0x9898888999889898U, 0x8988998988899898U,
  0x8998889988898999U, 0x9989989989888888U, 0x9898898898999988U, 0x8889988989899888U,
  0x9898998889898998U, 0x8898998889889899U, 0x9999989899998999U, 0x9989999998889889U,
  0x8898999989888999U, 0x9998899888989898U, 0x9988889899888898U, 0x8988898989998988U,
  0x9888988998899899U, 0x8998988989889988U, 0x8888989899989998U, 0x8988898998989988U,
  0x7897789898798987U, 0xa778898a98788889U, 0x8887788978898779U, 0x97877888998988a8U,
  0x9897978897889898U, 0x9889989788898889U, 0x8899788799988888U, 0x8888a878888a8799U,
  0x7898988987898978U, 0x8999888888999878U, 0x9888797988798888U, 0x8888999998788898U,
  0x9898789887888889U, 0x7979799888889898U, 0x888888887a987788U, 0x9998888999998889U,
  0x98a8898888888788U, 0x8888898898888898U, 0x99a8878898898898U, 0x989788a988788889U,
  0x8887789988889999U, 0x87888a9888998899U, 0x9899888988998797U, 0x88a997998a989988U,
  0x8a8889a989988989U, 0x9898998888888899U, 0x9898979a99889898U, 0x8899888998998899U,
  0x99a89888a7a99888U, 0x9999989898989998U, 0x88a8889888889999U, 0x8988989a899898a8U,
  0x9899898987988888U, 0x988998a788979888U, 0x8889999988998997U, 0x8898898888899999U,
  0x9999888888998898U, 0x9778989899888888U, 0x8989987988889888U, 0x87a9999998899889U,
  0x9888887898888889U, 0x778979ab88999888U, 0x9989898978889889U, 0x89898998887888a7U,
